{
  "version": "1.0",
  "truncation": null,
  "padding": null,
  "added_tokens": [
    {
      "id": 0,
      "content": "<pad>",
      "single_word": false,
      "lstrip": false,
      "rstrip": false,
      "normalized": false,
      "special": true
    },
    {
      "id": 1,
      "content": "<unk>",
      "single_word": false,
      "lstrip": false,
      "rstrip": false,
      "normalized": false,
      "special": true
    },
    {
      "id": 2,
      "content": "<bos>",
      "single_word": false,
      "lstrip": false,
      "rstrip": false,
      "normalized": false,
      "special": true
    },
    {
      "id": 3,
      "content": "<eos>",
      "single_word": false,
      "lstrip": false,
      "rstrip": false,
      "normalized": false,
      "special": true
    }
  ],
  "normalizer": {
    "type": "Sequence",
    "normalizers": [
      {
        "type": "NFKC"
      }
    ]
  },
  "pre_tokenizer": {
    "type": "ByteLevel",
    "add_prefix_space": false,
    "trim_offsets": true,
    "use_regex": true
  },
  "post_processor": null,
  "decoder": {
    "type": "ByteLevel",
    "add_prefix_space": true,
    "trim_offsets": true,
    "use_regex": true
  },
  "model": {
    "type": "BPE",
    "dropout": null,
    "unk_token": "<unk>",
    "continuing_subword_prefix": null,
    "end_of_word_suffix": null,
    "fuse_unk": false,
    "byte_fallback": false,
    "ignore_merges": false,
    "vocab": {
      "<pad>": 0,
      "<unk>": 1,
      "<bos>": 2,
      "<eos>": 3,
      "!": 4,
      "\"": 5,
      "#": 6,
      "$": 7,
      "%": 8,
      "&": 9,
      "'": 10,
      "(": 11,
      ")": 12,
      "*": 13,
      "+": 14,
      ",": 15,
      "-": 16,
      ".": 17,
      "/": 18,
      "0": 19,
      "1": 20,
      "2": 21,
      "3": 22,
      "4": 23,
      "5": 24,
      "6": 25,
      "7": 26,
      "8": 27,
      "9": 28,
      ":": 29,
      ";": 30,
      "<": 31,
      "=": 32,
      ">": 33,
      "?": 34,
      "@": 35,
      "A": 36,
      "B": 37,
      "C": 38,
      "D": 39,
      "E": 40,
      "F": 41,
      "G": 42,
      "H": 43,
      "I": 44,
      "J": 45,
      "K": 46,
      "L": 47,
      "M": 48,
      "N": 49,
      "O": 50,
      "P": 51,
      "Q": 52,
      "R": 53,
      "S": 54,
      "T": 55,
      "U": 56,
      "V": 57,
      "W": 58,
      "X": 59,
      "Y": 60,
      "Z": 61,
      "[": 62,
      "\\": 63,
      "]": 64,
      "^": 65,
      "_": 66,
      "`": 67,
      "a": 68,
      "b": 69,
      "c": 70,
      "d": 71,
      "e": 72,
      "f": 73,
      "g": 74,
      "h": 75,
      "i": 76,
      "j": 77,
      "k": 78,
      "l": 79,
      "m": 80,
      "n": 81,
      "o": 82,
      "p": 83,
      "q": 84,
      "r": 85,
      "s": 86,
      "t": 87,
      "u": 88,
      "v": 89,
      "w": 90,
      "x": 91,
      "y": 92,
      "z": 93,
      "{": 94,
      "|": 95,
      "}": 96,
      "~": 97,
      "¡": 98,
      "¢": 99,
      "£": 100,
      "¤": 101,
      "¥": 102,
      "¦": 103,
      "§": 104,
      "¨": 105,
      "©": 106,
      "ª": 107,
      "«": 108,
      "¬": 109,
      "®": 110,
      "¯": 111,
      "°": 112,
      "±": 113,
      "²": 114,
      "³": 115,
      "´": 116,
      "µ": 117,
      "¶": 118,
      "·": 119,
      "¸": 120,
      "¹": 121,
      "º": 122,
      "»": 123,
      "¼": 124,
      "½": 125,
      "¾": 126,
      "¿": 127,
      "Â": 128,
      "Ã": 129,
      "Ä": 130,
      "Å": 131,
      "Ç": 132,
      "È": 133,
      "É": 134,
      "Ê": 135,
      "Ë": 136,
      "Ì": 137,
      "Í": 138,
      "Î": 139,
      "Ï": 140,
      "Ð": 141,
      "Ñ": 142,
      "Ò": 143,
      "×": 144,
      "Ø": 145,
      "Ù": 146,
      "Ú": 147,
      "Û": 148,
      "à": 149,
      "á": 150,
      "â": 151,
      "ã": 152,
      "ä": 153,
      "å": 154,
      "æ": 155,
      "ç": 156,
      "è": 157,
      "é": 158,
      "ê": 159,
      "ë": 160,
      "ì": 161,
      "í": 162,
      "î": 163,
      "ï": 164,
      "ð": 165,
      "ĉ": 166,
      "Ċ": 167,
      "ċ": 168,
      "Ġ": 169,
      "Ģ": 170,
      "ģ": 171,
      "Ĥ": 172,
      "ĥ": 173,
      "Ħ": 174,
      "ħ": 175,
      "Ĩ": 176,
      "ĩ": 177,
      "Ī": 178,
      "ī": 179,
      "Ĭ": 180,
      "ĭ": 181,
      "Į": 182,
      "į": 183,
      "İ": 184,
      "ı": 185,
      "Ĳ": 186,
      "ĳ": 187,
      "Ĵ": 188,
      "ĵ": 189,
      "Ķ": 190,
      "ķ": 191,
      "ĸ": 192,
      "Ĺ": 193,
      "ĺ": 194,
      "Ļ": 195,
      "ļ": 196,
      "Ľ": 197,
      "ľ": 198,
      "Ŀ": 199,
      "ŀ": 200,
      "Ł": 201,
      "ł": 202,
      "Ń": 203,
      "he": 204,
      "Ġt": 205,
      "Ġa": 206,
      "Ġs": 207,
      "Ġw": 208,
      "nd": 209,
      "Ġthe": 210,
      "ed": 211,
      "Ġand": 212,
      "in": 213,
      "Ġto": 214,
      "Ġb": 215,
      "Ġh": 216,
      "re": 217,
      "Ġwa": 218,
      "ou": 219,
      "it": 220,
      "Ġf": 221,
      "ĠT": 222,
      "Ġc": 223,
      "er": 224,
      "Ġl": 225,
      "Ġd": 226,
      "Ġhe": 227,
      "Ġp": 228,
      "Ġm": 229,
      "Ġwas": 230,
      "Ġo": 231,
      "om": 232,
      "is": 233,
      "ar": 234,
      "ay": 235,
      "ing": 236,
      "ĠThe": 237,
      "il": 238,
      "at": 239,
      "Ġg": 240,
      "id": 241,
      "ĠS": 242,
      "en": 243,
      "an": 244,
      "Ġn": 245,
      "Ġsa": 246,
      "Ġha": 247,
      "or": 248,
      "on": 249,
      "im": 250,
      "Ġth": 251,
      "Ġit": 252,
      "ll": 253,
      "ĠH": 254,
      "le": 255,
      "Ġ\"": 256,
      "es": 257,
      "et": 258,
      "ot": 259,
      "ir": 260,
      "Ġher": 261,
      "ĠShe": 262,
      "Ġin": 263,
      "ĠHe": 264,
      "ĠThey": 265,
      "ver": 266,
      "ow": 267,
      "ut": 268,
      "Ġe": 269,
      "ck": 270,
      "Ġu": 271,
      "ld": 272,
      "ĠL": 273,
      "Ġy": 274,
      "oo": 275,
      "ri": 276,
      "Ġsaid": 277,
      "Ġbe": 278,
      "am": 279,
      "ce": 280,
      "ily": 281,
      "Ġst": 282,
      "ĠI": 283,
      "Ġof": 284,
      "ve": 285,
      "ke": 286,
      "ith": 287,
      "pp": 288,
      "Ġr": 289,
      "Ġshe": 290,
      "Ġwith": 291,
      "ig": 292,
      "Ġon": 293,
      "On": 294,
      "Ġyou": 295,
      "ked": 296,
      "ĠLily": 297,
      "nt": 298,
      "ad": 299,
      "Ġso": 300,
      "Ġpl": 301,
      "st": 302,
      "Ġhis": 303,
      "ĠB": 304,
      "very": 305,
      "Ġthat": 306,
      "Ġday": 307,
      "Ġup": 308,
      "Ġplay": 309,
      "Ġfor": 310,
      "Ġhad": 311,
      "Ġwe": 312,
      "Ġthey": 313,
      "ent": 314,
      "se": 315,
      "ĠA": 316,
      "Ġmom": 317,
      "ĠM": 318,
      "ch": 319,
      "un": 320,
      "ould": 321,
      "'s": 322,
      "my": 323,
      "al": 324,
      "Ġli": 325,
      "ly": 326,
      "out": 327,
      "Ġsh": 328,
      "itt": 329,
      "Ġhapp": 330,
      "her": 331,
      "Ġwant": 332,
      "Ġas": 333,
      "all": 334,
      "Ġre": 335,
      "ome": 336,
      "Ġwh": 337,
      "Ġdo": 338,
      "Ġis": 339,
      "el": 340,
      "ound": 341,
      "end": 342,
      "Ġnot": 343,
      "ime": 344,
      "Ġvery": 345,
      "ittle": 346,
      "Ġtime": 347,
      "Ġk": 348,
      "Ġne": 349,
      "ht": 350,
      "Ġlittle": 351,
      "Ġthere": 352,
      "Ġan": 353,
      "ra": 354,
      "ĠIt": 355,
      "Ġhappy": 356,
      "Ġsm": 357,
      "Ġbig": 358,
      "Ġbut": 359,
      "Ġfri": 360,
      "Ġsaw": 361,
      "Ġfriend": 362,
      "ry": 363,
      "ack": 364,
      ".\"": 365,
      "Ġare": 366,
      "ide": 367,
      "ter": 368,
      "One": 369,
      "ake": 370,
      "ec": 371,
      "'t": 372,
      "ĠTim": 373,
      "ore": 374,
      "ug": 375,
      "ved": 376,
      "ul": 377,
      "!\"": 378,
      "Ġloo": 379,
      "Ġlo": 380,
      "Ġwere": 381,
      "Once": 382,
      "ĠOne": 383,
      "##": 384,
      "ĠJ": 385,
      "Ġgo": 386,
      "Ġhim": 387,
      "Ġtoo": 388,
      "Ġbo": 389,
      "Ġse": 390,
      "ur": 391,
      "ic": 392,
      "ard": 393,
      "ill": 394,
      "irl": 395,
      "Ġj": 396,
      "lp": 397,
      "Ġupon": 398,
      "Ġwanted": 399,
      "Ġgirl": 400,
      "ful": 401,
      "Ġout": 402,
      "Ġat": 403,
      "Ġhelp": 404,
      "ind": 405,
      "Ġthem": 406,
      "Ġsp": 407,
      "Ġtheir": 408,
      "way": 409,
      "hen": 410,
      "ain": 411,
      "Ġcould": 412,
      "Ġdid": 413,
      "Ġsmil": 414,
      "You": 415,
      "Ġex": 416,
      "Ġhave": 417,
      "ĠTom": 418,
      "ĠBen": 419,
      "art": 420,
      "rom": 421,
      "Ġcan": 422,
      "Ġar": 423,
      "hed": 424,
      "ĠW": 425,
      "um": 426,
      "ss": 427,
      "Ġwent": 428,
      "ood": 429,
      "Ġnam": 430,
      "one": 431,
      "Ġall": 432,
      "ist": 433,
      "Ġfriends": 434,
      "hing": 435,
      "ro": 436,
      "Ġkn": 437,
      "?\"": 438,
      "ĠBut": 439,
      "ark": 440,
      "ant": 441,
      "Ġback": 442,
      "Ġcl": 443,
      "are": 444,
      "Ġle": 445,
      "Ġfun": 446,
      "Ġal": 447,
      "Ġsay": 448,
      "ĠTimmy": 449,
      "Ġno": 450,
      "ght": 451,
      "Ġnamed": 452,
      "Ġsc": 453,
      "op": 454,
      "Ġloved": 455,
      "Ġsmiled": 456,
      "Ġman": 457,
      "side": 458,
      "ure": 459,
      "ick": 460,
      "elt": 461,
      "Ġfe": 462,
      "Ġasked": 463,
      "Ġme": 464,
      "Ġtoy": 465,
      "Ġlike": 466,
      "ame": 467,
      "Ġfelt": 468,
      "Ġsome": 469,
      "Ġaround": 470,
      "Ġlooked": 471,
      "Ġsee": 472,
      "Ġro": 473,
      "omet": 474,
      "get": 475,
      "ol": 476,
      "Ġbir": 477,
      "Ġwould": 478,
      "ice": 479,
      "ong": 480,
      "ag": 481,
      "Ġboy": 482,
      "Ġwor": 483,
      "Ġstart": 484,
      "âĢ": 485,
      "if": 486,
      "dd": 487,
      "Ġfa": 488,
      "Ġbird": 489,
      "ara": 490,
      "king": 491,
      "ie": 492,
      "Ġsomet": 493,
      "ings": 494,
      "Ġag": 495,
      "ade": 496,
      "Ġwhat": 497,
      "Ġmake": 498,
      "own": 499,
      "ite": 500,
      "ree": 501,
      "gether": 502,
      "###": 503,
      "as": 504,
      "Ġran": 505,
      "ight": 506,
      "ĠMom": 507,
      ",\"": 508,
      "Ġaway": 509,
      "ared": 510,
      "Ġstarted": 511,
      "ble": 512,
      "ĠYou": 513,
      "ther": 514,
      "ion": 515,
      "ĠE": 516,
      "oud": 517,
      "est": 518,
      "Ġfrom": 519,
      "Ġcar": 520,
      "us": 521,
      "Ġtogether": 522,
      "ĠF": 523,
      "Ġmade": 524,
      "ited": 525,
      "Ġsays": 526,
      "Ġsomething": 527,
      "Ġnew": 528,
      "Ġother": 529,
      "Ġpark": 530,
      "Ġch": 531,
      "ell": 532,
      "qu": 533,
      "Ġsad": 534,
      "os": 535,
      "ach": 536,
      "ep": 537,
      "Ġexc": 538,
      "Ġla": 539,
      "ust": 540,
      "Ġput": 541,
      "Ġwhen": 542,
      "hat": 543,
      "ook": 544,
      "Ġagain": 545,
      "ĠD": 546,
      "Ġhome": 547,
      "Ġwho": 548,
      "pl": 549,
      "Ġhug": 550,
      "ally": 551,
      "Ġgood": 552,
      "Ġfl": 553,
      "Ġfound": 554,
      "Ġdec": 555,
      "Ġthen": 556,
      "uch": 557,
      "ried": 558,
      "em": 559,
      "Ġwal": 560,
      "pped": 561,
      "Ġpr": 562,
      "ous": 563,
      "Ġget": 564,
      "Ġv": 565,
      "ought": 566,
      "Ġplaying": 567,
      "Ġsw": 568,
      "Ġthings": 569,
      "Ġexcited": 570,
      "Ġgot": 571,
      "ers": 572,
      "ess": 573,
      "uck": 574,
      "ny": 575,
      "ided": 576,
      "Ġliked": 577,
      "Ġyour": 578,
      "Ġbl": 579,
      "ax": 580,
      "ĠSu": 581,
      "Ġevery": 582,
      "Ġone": 583,
      "Ġdecided": 584,
      "ave": 585,
      "ap": 586,
      "Ġcame": 587,
      "fe": 588,
      "Ġbec": 589,
      "our": 590,
      "Ġab": 591,
      "ouse": 592,
      "na": 593,
      "Ġdown": 594,
      "Ġfind": 595,
      "Ġdog": 596,
      "ate": 597,
      "Ġscared": 598,
      "ĠSam": 599,
      "Ġthan": 600,
      "Ġcare": 601,
      "Ġgr": 602,
      "Ġfeel": 603,
      "arn": 604,
      "istant": 605,
      "Ġke": 606,
      "Ġmy": 607,
      "Ġabout": 608,
      "ive": 609,
      "ĠN": 610,
      "Ġwill": 611,
      "Ġdad": 612,
      "Ġbr": 613,
      "nder": 614,
      "ways": 615,
      "Ġdidn": 616,
      "Ġlook": 617,
      "ĠMax": 618,
      "Ġgra": 619,
      "nna": 620,
      "Ġint": 621,
      "ial": 622,
      "Ġmore": 623,
      "Ġalways": 624,
      "Ġmommy": 625,
      "ang": 626,
      "ise": 627,
      "ew": 628,
      "Ġco": 629,
      "Ġtook": 630,
      "bb": 631,
      "Ġlot": 632,
      "ĠSo": 633,
      "Ġpre": 634,
      "Ġtoys": 635,
      "Ġoutside": 636,
      "Ġta": 637,
      "Ġtree": 638,
      "Ġthought": 639,
      "Ġlearn": 640,
      "Ġball": 641,
      "ĠSara": 642,
      "ched": 643,
      "ened": 644,
      "Ġold": 645,
      "ia": 646,
      "ĠWhen": 647,
      "and": 648,
      "Ġknow": 649,
      "Ġor": 650,
      "ct": 651,
      "Ġspec": 652,
      "reat": 653,
      "Ġcat": 654,
      "ull": 655,
      "Ġtake": 656,
      "Ġpe": 657,
      "ven": 658,
      "ĠAnna": 659,
      "Ġspecial": 660,
      "Ġlaug": 661,
      "Ġknew": 662,
      "Ġpo": 663,
      "dden": 664,
      "Ġany": 665,
      "fter": 666,
      "Ġcom": 667,
      "Ġsor": 668,
      "Ġen": 669,
      "Ġhow": 670,
      "ĠHer": 671,
      "Ġmo": 672,
      "ged": 673,
      "Ġtw": 674,
      "Ġho": 675,
      "ĠC": 676,
      "ddenly": 677,
      "ish": 678,
      "Ġshow": 679,
      "ĠJo": 680,
      "ink": 681,
      "ma": 682,
      "Ġtr": 683,
      "Ġmuch": 684,
      "Ġop": 685,
      "Ġrun": 686,
      "Ġqu": 687,
      "Ġsl": 688,
      "Ġinto": 689,
      "use": 690,
      "Ġthis": 691,
      "Ġhand": 692,
      "Ġhouse": 693,
      "ĠEvery": 694,
      "ĠJack": 695,
      "Ġsorry": 696,
      "here": 697,
      "Ġsun": 698,
      "Ġsk": 699,
      "ace": 700,
      "ort": 701,
      "Ġover": 702,
      "Ġwater": 703,
      "iz": 704,
      "Ġif": 705,
      "dy": 706,
      "ank": 707,
      "Ġtried": 708,
      "Ġfo": 709,
      "Ġtold": 710,
      "Ġinside": 711,
      "ine": 712,
      "ump": 713,
      "ause": 714,
      "ue": 715,
      "Ġcouldn": 716,
      "Ġeach": 717,
      "ty": 718,
      "Ġproud": 719,
      "Ġgave": 720,
      "Ġexpl": 721,
      "Ġnever": 722,
      "by": 723,
      "Ġeat": 724,
      "Ġheard": 725,
      "ak": 726,
      "Ġus": 727,
      "other": 728,
      "ile": 729,
      "Ġplayed": 730,
      "Ġstr": 731,
      "Ġroom": 732,
      "etter": 733,
      "ĠSuddenly": 734,
      "Ġoff": 735,
      "Ġim": 736,
      "ĠWe": 737,
      "Ġpick": 738,
      "lf": 739,
      "Ġpret": 740,
      "oth": 741,
      "Ġneed": 742,
      "Ġjust": 743,
      "right": 744,
      "Ġbecause": 745,
      "ies": 746,
      "ĠFrom": 747,
      "ĠThen": 748,
      "Ġby": 749,
      "ving": 750,
      "oug": 751,
      "Ġwat": 752,
      "Ġhugged": 753,
      "Ġmany": 754,
      "ough": 755,
      "Ġpol": 756,
      "ob": 757,
      "ĠHis": 758,
      "'m": 759,
      "Ġbox": 760,
      "uc": 761,
      "Ġnice": 762,
      "ex": 763,
      "Ġsmall": 764,
      "Ġlong": 765,
      "ĠMia": 766,
      "ĠP": 767,
      "ect": 768,
      "imal": 769,
      "ĠAnd": 770,
      "Ġbear": 771,
      "Ġanimal": 772,
      "ild": 773,
      "Ġad": 774,
      "Ġunt": 775,
      "Ġtry": 776,
      "gry": 777,
      "ft": 778,
      "ear": 779,
      "vent": 780,
      "pt": 781,
      "Ġuntil": 782,
      "ĠU": 783,
      "ber": 784,
      "Ġbu": 785,
      "urt": 786,
      "ĠâĢ": 787,
      "Ġbetter": 788,
      "ves": 789,
      "Ġcon": 790,
      "Ġkind": 791,
      "Ġlearned": 792,
      "Ġend": 793,
      "urn": 794,
      "Ġbest": 795,
      "Ġsn": 796,
      "Ġflow": 797,
      "Ġcall": 798,
      "Ġlove": 799,
      "ase": 800,
      "ream": 801,
      "Ġcle": 802,
      "oy": 803,
      "aut": 804,
      "urp": 805,
      "Ġdon": 806,
      "ady": 807,
      "Yes": 808,
      "Ġlist": 809,
      "Ġeven": 810,
      "Ġche": 811,
      "âĢĿ": 812,
      "ĠâĢľ": 813,
      "Ġway": 814,
      "Ġfast": 815,
      "Ġbeaut": 816,
      "Ġhelpful": 817,
      "arden": 818,
      "Ġimp": 819,
      "Ġgarden": 820,
      "yst": 821,
      "Ġgl": 822,
      "Ġfi": 823,
      "Ġbra": 824,
      "Ġsky": 825,
      "Ġcareful": 826,
      "Th": 827,
      "Ġpolite": 828,
      "wn": 829,
      "Ġthanked": 830,
      "self": 831,
      "Ġlaughed": 832,
      "Ġjump": 833,
      "ser": 834,
      "Ġfam": 835,
      "Ġcu": 836,
      "ast": 837,
      "Ġloud": 838,
      "ystem": 839,
      "Ġsafe": 840,
      "Ġtwo": 841,
      "ĠG": 842,
      "Ġra": 843,
      "Ġcome": 844,
      "iny": 845,
      "Ġhard": 846,
      "Ġunder": 847,
      "iful": 848,
      "lew": 849,
      "ning": 850,
      "Ġbeautiful": 851,
      "hn": 852,
      "Ġlots": 853,
      "Ġte": 854,
      "Ġanimals": 855,
      "ĠNex": 856,
      "ock": 857,
      "Ġstill": 858,
      "Ġass": 859,
      "be": 860,
      "ation": 861,
      "ople": 862,
      "Ġits": 863,
      "hes": 864,
      "ĠAI": 865,
      "Ġboth": 866,
      "age": 867,
      "Ġstay": 868,
      "ip": 869,
      "Ġhurt": 870,
      "ool": 871,
      "Ġshould": 872,
      "Ġlet": 873,
      "th": 874,
      "It": 875,
      "Ġcol": 876,
      "ĠAs": 877,
      "Ġrem": 878,
      "Ġassistant": 879,
      "ĠAss": 880,
      "ĠSystem": 881,
      "ĠUser": 882,
      "ĠAssistant": 883,
      "Ġpeople": 884,
      "Ġred": 885,
      "eos": 886,
      "Ġclos": 887,
      "ĠNexara": 888,
      "Ġbook": 889,
      "igh": 890,
      "ane": 891,
      "Ġlived": 892,
      "Ġstor": 893,
      "Ġbad": 894,
      "ary": 895,
      "so": 896,
      "Ġfin": 897,
      "Ġfamily": 898,
      "les": 899,
      "Ġwalked": 900,
      "kay": 901,
      "ucy": 902,
      "ished": 903,
      "ĠAfter": 904,
      "fore": 905,
      "urpr": 906,
      "Ġalso": 907,
      "ĠLucy": 908,
      "Ġbrave": 909,
      "What": 910,
      "ĠR": 911,
      "led": 912,
      "Ġcalled": 913,
      "Ġwo": 914,
      "Ġsurpr": 915,
      "Ġflew": 916,
      "Ġfore": 917,
      "ĠJohn": 918,
      "Ġsoon": 919,
      "ress": 920,
      "Ġangry": 921,
      "Ġfly": 922,
      "Ġkept": 923,
      "ised": 924,
      "Ġhas": 925,
      "Ġshare": 926,
      "Let": 927,
      "ied": 928,
      "Ġgoing": 929,
      "ge": 930,
      "Ġpic": 931,
      "ff": 932,
      "Ġkeep": 933,
      "Ġun": 934,
      "Ġclean": 935,
      "Ġdoor": 936,
      "dded": 937,
      "Ġpretty": 938,
      "Ġrock": 939,
      "Ġdra": 940,
      "Ġide": 941,
      "Ġbefore": 942,
      "Ġnow": 943,
      "Ġreal": 944,
      "Ġadvent": 945,
      "Ġwind": 946,
      "ĠMommy": 947,
      "ummy": 948,
      "iss": 949,
      "Ġexplore": 950,
      "ĠSp": 951,
      "ac": 952,
      "ĠDad": 953,
      "illy": 954,
      "Ġnoise": 955,
      "Ġcry": 956,
      "Ġopened": 957,
      "âĢĻ": 958,
      "Ġshiny": 959,
      "Ġdif": 960,
      "Ġground": 961,
      "Ġma": 962,
      "Ġwhile": 963,
      "Ġdoll": 964,
      "Ġwar": 965,
      "Ġturn": 966,
      "Ġthr": 967,
      "No": 968,
      "Ġcolor": 969,
      "xt": 970,
      "llow": 971,
      "Ġapp": 972,
      "Ġsto": 973,
      "able": 974,
      "Ġfar": 975,
      "Ġidea": 976,
      "Ġey": 977,
      "Ġac": 978,
      "Ġclim": 979,
      "ious": 980,
      "Ġfeeling": 981,
      "Ġnext": 982,
      "Ġtra": 983,
      "eet": 984,
      "Ġpicked": 985,
      "Ġwalking": 986,
      "thing": 987,
      "ture": 988,
      "Ġfollow": 989,
      "Ġnodded": 990,
      "Ġtre": 991,
      "Ġbeing": 992,
      "Ġde": 993,
      "ting": 994,
      "Ġfood": 995,
      "Ġclimb": 996,
      "kes": 997,
      ".<": 998,
      "Ġadventure": 999,
      "Ġbed": 1000,
      "Ġwr": 1001,
      "ĠBob": 1002,
      "Ġpu": 1003,
      "Ġdis": 1004,
      "Ġsu": 1005,
      "Ġimport": 1006,
      "ted": 1007,
      "Ġsmile": 1008,
      "fere": 1009,
      "irst": 1010,
      "iced": 1011,
      "Ġpro": 1012,
      "joy": 1013,
      "That": 1014,
      "Ġfr": 1015,
      "Ġgreat": 1016,
      "Thank": 1017,
      "Ġdel": 1018,
      "ose": 1019,
      "Ġrepl": 1020,
      "Ġafter": 1021,
      "Ġgive": 1022,
      "Ġown": 1023,
      "ized": 1024,
      "Ġpicture": 1025,
      "aybe": 1026,
      "ance": 1027,
      "Ġlooking": 1028,
      "Ġimportant": 1029,
      "ount": 1030,
      "Ġdiffere": 1031,
      "Ġbro": 1032,
      "Ġtow": 1033,
      "Ġthink": 1034,
      "ud": 1035,
      "ass": 1036,
      "Ġwait": 1037,
      "Ġwork": 1038,
      "ught": 1039,
      "gan": 1040,
      "ember": 1041,
      "Ġuse": 1042,
      "Ġwalk": 1043,
      "Ġeyes": 1044,
      "Ġlisten": 1045,
      "Ġtruck": 1046,
      "Ġstopped": 1047,
      "ĠSpot": 1048,
      "Ġhead": 1049,
      "Ġenjoy": 1050,
      "Ġquick": 1051,
      "Ġforest": 1052,
      "Ġever": 1053,
      "Ġblue": 1054,
      "Ġyear": 1055,
      "ĠSue": 1056,
      "Ġflowers": 1057,
      "Ġnear": 1058,
      "Ġhands": 1059,
      "ĠTh": 1060,
      "bbit": 1061,
      "Ġjo": 1062,
      "oon": 1063,
      "Ġcont": 1064,
      "Ġnoticed": 1065,
      "Ġbeen": 1066,
      "Ġremember": 1067,
      "Ġmean": 1068,
      "Ġshout": 1069,
      "oice": 1070,
      "Ġfish": 1071,
      "Ġsound": 1072,
      "Ġreplied": 1073,
      "Ġrain": 1074,
      "maz": 1075,
      "day": 1076,
      "Ġwonder": 1077,
      "Ġgre": 1078,
      "Ġdifferent": 1079,
      "ange": 1080,
      "lease": 1081,
      "Ġwhere": 1082,
      "The": 1083,
      "Ġright": 1084,
      "Ġwatch": 1085,
      "ered": 1086,
      "Ġamaz": 1087,
      "Ġshowed": 1088,
      "Ġam": 1089,
      "Ġtal": 1090,
      "Ġrabbit": 1091,
      "Ġslide": 1092,
      "Ġour": 1093,
      "Ġokay": 1094,
      "Ġstrong": 1095,
      "anc": 1096,
      "Ġbright": 1097,
      "bye": 1098,
      "ĠSarah": 1099,
      "Ġsqu": 1100,
      "ĠIn": 1101,
      "Ġquickly": 1102,
      "Ġask": 1103,
      "Ġhigh": 1104,
      "Ġeveryone": 1105,
      "bbed": 1106,
      "Ġmor": 1107,
      "Ġthree": 1108,
      "Ġstore": 1109,
      "Ġwatched": 1110,
      "Lily": 1111,
      "We": 1112,
      "Ġbecame": 1113,
      "Ġsure": 1114,
      "Ġvoice": 1115,
      "Ġfirst": 1116,
      "Ġstick": 1117,
      "Ġplace": 1118,
      "Ġchild": 1119,
      "Ġper": 1120,
      "Ġyell": 1121,
      "Ġwarm": 1122,
      "Ġbel": 1123,
      "Ġboat": 1124,
      "Ġface": 1125,
      "ey": 1126,
      "Ġbus": 1127,
      "Ġdoes": 1128,
      "Ġcuri": 1129,
      "Ġmag": 1130,
      "ĠJane": 1131,
      "Ġhop": 1132,
      "Ġgoodbye": 1133,
      "unny": 1134,
      "aught": 1135,
      "Ġfav": 1136,
      "Ġdress": 1137,
      "orn": 1138,
      "Ġcloser": 1139,
      "lly": 1140,
      "Ġnight": 1141,
      "Ġcook": 1142,
      "Look": 1143,
      "leep": 1144,
      "ars": 1145,
      "ired": 1146,
      "Ġtell": 1147,
      "Ġforg": 1148,
      "Ġcurious": 1149,
      "imes": 1150,
      "Ġopen": 1151,
      "Ġmon": 1152,
      "ndma": 1153,
      "more": 1154,
      "Ġbutter": 1155,
      "Ġused": 1156,
      "Ġpain": 1157,
      "ila": 1158,
      "Ġcake": 1159,
      "Ġanymore": 1160,
      "itc": 1161,
      "Ġonly": 1162,
      "Ġz": 1163,
      "ign": 1164,
      "Ġhere": 1165,
      "Ġblock": 1166,
      "ached": 1167,
      "ence": 1168,
      "Ġbre": 1169,
      "Ġpull": 1170,
      "Ġsweet": 1171,
      "Ġlea": 1172,
      "Can": 1173,
      "Ġba": 1174,
      "Ġkid": 1175,
      "cess": 1176,
      "Ġfell": 1177,
      "Ġworld": 1178,
      "isy": 1179,
      "Ġthrough": 1180,
      "Ġgrabbed": 1181,
      "Ġsing": 1182,
      "Ġpat": 1183,
      "Ġbirds": 1184,
      "Ġstory": 1185,
      "mer": 1186,
      "Ġtri": 1187,
      "ient": 1188,
      "Ġsand": 1189,
      "Ġhelped": 1190,
      "Ġpart": 1191,
      "Ġjumped": 1192,
      "ĠEveryone": 1193,
      "Ġcomp": 1194,
      "itchen": 1195,
      "Ġbit": 1196,
      "Ġkitchen": 1197,
      "Mom": 1198,
      "Ġfire": 1199,
      "Ġdro": 1200,
      "Ġgi": 1201,
      "Ġglad": 1202,
      "air": 1203,
      "Ġcr": 1204,
      "Ġprin": 1205,
      "Ġcra": 1206,
      "ĠThat": 1207,
      "ater": 1208,
      "Ġri": 1209,
      "Ġflo": 1210,
      "ins": 1211,
      "Ġstop": 1212,
      "ather": 1213,
      "Ġbeh": 1214,
      "Ġrest": 1215,
      "Ġgame": 1216,
      "Ġbunny": 1217,
      "Ġhappened": 1218,
      "nts": 1219,
      "Ġgrass": 1220,
      "Ġsoft": 1221,
      "Ġunderst": 1222,
      "hy": 1223,
      "Ġfavor": 1224,
      "ĠLet": 1225,
      "Ġrealized": 1226,
      "Ġhaving": 1227,
      "ĠDo": 1228,
      "ren": 1229,
      "ppy": 1230,
      "Ġsees": 1231,
      "ĠJoe": 1232,
      "Ġfavorite": 1233,
      "Ġyummy": 1234,
      "Ġbrother": 1235,
      "Ġshouted": 1236,
      "Ġless": 1237,
      "Ġreached": 1238,
      "Ġmess": 1239,
      "Ġdraw": 1240,
      "'re": 1241,
      "Ġlady": 1242,
      "Ġmaking": 1243,
      "Ġ-": 1244,
      "ĠĠ": 1245,
      "Ġate": 1246,
      "ully": 1247,
      "zy": 1248,
      "Ġmum": 1249,
      "ken": 1250,
      "ee": 1251,
      "ĠCan": 1252,
      "Ġpare": 1253,
      "Ġprom": 1254,
      "Ġreally": 1255,
      "Ġbegan": 1256,
      "Ġtop": 1257,
      "akes": 1258,
      "Ġthing": 1259,
      "Ġhat": 1260,
      "where": 1261,
      "Ġwhy": 1262,
      "Ġready": 1263,
      "Ġpap": 1264,
      "ĠFin": 1265,
      "ĠK": 1266,
      "Ġname": 1267,
      "Ġdone": 1268,
      "ity": 1269,
      "Ġbutterf": 1270,
      "Ġhimself": 1271,
      "Ġmagic": 1272,
      "ĠLila": 1273,
      "Ġcut": 1274,
      "fully": 1275,
      "Ġperf": 1276,
      "Ġfix": 1277,
      "Ġpretend": 1278,
      "uff": 1279,
      "Ġlight": 1280,
      "Ġcoming": 1281,
      "Ġlooks": 1282,
      "ment": 1283,
      "Ġfro": 1284,
      "Ġworry": 1285,
      "\".": 1286,
      "Ġtired": 1287,
      "Ġfill": 1288,
      "Ġset": 1289,
      "Ġduck": 1290,
      "Ġmouse": 1291,
      "Ġkids": 1292,
      "Ġpond": 1293,
      "Ġste": 1294,
      "Ġdelic": 1295,
      "oney": 1296,
      "Ġres": 1297,
      "Ġflower": 1298,
      "Ġwaved": 1299,
      "rel": 1300,
      "Ġcars": 1301,
      "eddy": 1302,
      "Ġcatch": 1303,
      "Ġseen": 1304,
      "ons": 1305,
      "ards": 1306,
      "olly": 1307,
      "Ġtast": 1308,
      "ĠTommy": 1309,
      "Ġanother": 1310,
      "Ġgreen": 1311,
      "aisy": 1312,
      "Ġyears": 1313,
      "ds": 1314,
      "Ġfunny": 1315,
      "Ġtouch": 1316,
      "Ġdri": 1317,
      "Ġread": 1318,
      "Wow": 1319,
      "Ġhair": 1320,
      "Ġparents": 1321,
      "Ġcool": 1322,
      "Ġbat": 1323,
      "ĠSally": 1324,
      "Ġdoing": 1325,
      "Ġhold": 1326,
      "Ġhopped": 1327,
      "ens": 1328,
      "co": 1329,
      "Ġdin": 1330,
      "Ġcreat": 1331,
      "ster": 1332,
      "bo": 1333,
      "Ġcried": 1334,
      "ich": 1335,
      "Ġsurprise": 1336,
      "Ġtrees": 1337,
      "Ġfull": 1338,
      "Ġwood": 1339,
      "Ġpus": 1340,
      "Ġblocks": 1341,
      "ated": 1342,
      "Ġrunning": 1343,
      "Don": 1344,
      "Ġsat": 1345,
      "Ġdark": 1346,
      "ued": 1347,
      "Ġworked": 1348,
      "Ġthank": 1349,
      "Ġsho": 1350,
      "Ġrel": 1351,
      "Ġdr": 1352,
      "Ġpaper": 1353,
      "Ġmat": 1354,
      "Tom": 1355,
      "Ġfloor": 1356,
      "Ġwindow": 1357,
      "sh": 1358,
      "ike": 1359,
      "av": 1360,
      "Ġsleep": 1361,
      "ĠBenny": 1362,
      "Ġbehind": 1363,
      "Ġspot": 1364,
      "Ġswim": 1365,
      "Ġyellow": 1366,
      "Ġhappily": 1367,
      "Ġsmell": 1368,
      "ĠEm": 1369,
      "Ġclose": 1370,
      "Ġbag": 1371,
      "andy": 1372,
      "Ġlesson": 1373,
      "Ġbow": 1374,
      "Ġneeded": 1375,
      "amp": 1376,
      "aring": 1377,
      "Ġlost": 1378,
      "Ġbutterfly": 1379,
      "ĠAt": 1380,
      "Ġbuy": 1381,
      "rew": 1382,
      "Ġair": 1383,
      "Ġwished": 1384,
      "Ġice": 1385,
      "Ġremembered": 1386,
      "Ġfrog": 1387,
      "orm": 1388,
      "Ġcold": 1389,
      "Ġslow": 1390,
      "ĠO": 1391,
      "Ġheld": 1392,
      "ĠDaisy": 1393,
      "Ġlikes": 1394,
      "Ġsurprised": 1395,
      "Ġcarefully": 1396,
      "Ġmove": 1397,
      "Ġcontin": 1398,
      "ello": 1399,
      "ross": 1400,
      "Ġswing": 1401,
      "Ġcount": 1402,
      "Hello": 1403,
      "Ġhole": 1404,
      "ask": 1405,
      "Ġleft": 1406,
      "ĠThis": 1407,
      "ret": 1408,
      "ĠFinally": 1409,
      "ined": 1410,
      "Ġmus": 1411,
      "Ġdream": 1412,
      "Ġunderstand": 1413,
      "reed": 1414,
      "Ġtable": 1415,
      "Ġlaugh": 1416,
      "Ġtall": 1417,
      "Ġarri": 1418,
      "ield": 1419,
      "Ġanything": 1420,
      "ger": 1421,
      "Ġbooks": 1422,
      "Ġwrong": 1423,
      "Ġenjoyed": 1424,
      "anger": 1425,
      "Ġ1": 1426,
      "Ġhot": 1427,
      "ĠTo": 1428,
      "Ġchildren": 1429,
      "Ġfollowed": 1430,
      "Ġel": 1431,
      "ner": 1432,
      "Ġfair": 1433,
      "Ġdelicious": 1434,
      "Ġfinished": 1435,
      "ĠNow": 1436,
      "Ġhear": 1437,
      "Ġhun": 1438,
      "Ġbuild": 1439,
      "Ġfriendly": 1440,
      "Ġsnow": 1441,
      "ĠBilly": 1442,
      "ph": 1443,
      "Ġherself": 1444,
      "Ġru": 1445,
      "Ġable": 1446,
      "Ġdir": 1447,
      "ĠGra": 1448,
      "Ġvis": 1449,
      "Ġmight": 1450,
      "Ġhill": 1451,
      "Ġplease": 1452,
      "Ġcast": 1453,
      "Ġsuch": 1454,
      "!âĢĿ": 1455,
      "Ġhid": 1456,
      "ĠJim": 1457,
      "Ġarrived": 1458,
      "Ġarm": 1459,
      "Ġcolors": 1460,
      "Ġelse": 1461,
      "Ġgent": 1462,
      "red": 1463,
      "Ġsong": 1464,
      "Ġmet": 1465,
      "ions": 1466,
      "Ġinc": 1467,
      "Ġbaby": 1468,
      "Ġtight": 1469,
      "ĠAmy": 1470,
      "Ġforgot": 1471,
      "Ġbug": 1472,
      "asure": 1473,
      "Ġgu": 1474,
      "Ġsomeone": 1475,
      "Ġwonderful": 1476,
      "Ġbroken": 1477,
      "der": 1478,
      "ries": 1479,
      "ĠThere": 1480,
      "Ġyes": 1481,
      "vel": 1482,
      "Ġgone": 1483,
      "Ġfilled": 1484,
      "Ġcontinued": 1485,
      "Ġwall": 1486,
      "irrel": 1487,
      ".âĢĿ": 1488,
      "Ġpoin": 1489,
      "room": 1490,
      "Ġagreed": 1491,
      "'ll": 1492,
      "oup": 1493,
      "Ġsquirrel": 1494,
      "ctor": 1495,
      "Ġleaves": 1496,
      "ased": 1497,
      "Ġenough": 1498,
      "ama": 1499,
      "Ġpink": 1500,
      "Ġfew": 1501,
      "Ġbreak": 1502,
      "ĠWhat": 1503,
      "Ġmoment": 1504,
      "ere": 1505,
      "ower": 1506,
      "Ġlion": 1507,
      "Ġmorning": 1508,
      "ĠJen": 1509,
      "per": 1510,
      "Ġgetting": 1511,
      "Ġfinally": 1512,
      "man": 1513,
      "row": 1514,
      "og": 1515,
      "Ġwants": 1516,
      "ĠMolly": 1517,
      "ash": 1518,
      "app": 1519,
      "Ġbeach": 1520,
      "Ġele": 1521,
      "Ġsometimes": 1522,
      "ire": 1523,
      "Ġplan": 1524,
      "Ġothers": 1525,
      "Ġcookies": 1526,
      "Ġdinner": 1527,
      "Ġmiss": 1528,
      "Ġstayed": 1529,
      "Ġpi": 1530,
      "Ġfall": 1531,
      "eter": 1532,
      "icy": 1533,
      "Ġperfect": 1534,
      "Ġfight": 1535,
      "Ġscary": 1536,
      "gon": 1537,
      "Ġmost": 1538,
      "Ġcream": 1539,
      "Ġturned": 1540,
      "Ġtrying": 1541,
      "Ġdaddy": 1542,
      "key": 1543,
      "Ġhungry": 1544,
      "Ġgrandma": 1545,
      "Ġmother": 1546,
      "Ġgrow": 1547,
      "Ġamazing": 1548,
      "Ġmakes": 1549,
      "Ġsec": 1550,
      "iet": 1551,
      "Ġwet": 1552,
      "Ġfur": 1553,
      "Ġwhite": 1554,
      "oring": 1555,
      "ĠMaybe": 1556,
      "Ġmar": 1557,
      "Ġsear": 1558,
      "ling": 1559,
      "Ġcastle": 1560,
      "oom": 1561,
      "Ġclimbed": 1562,
      "rot": 1563,
      "Ġdeep": 1564,
      "Ġpictures": 1565,
      "Ġsit": 1566,
      "ugg": 1567,
      "Ġtalk": 1568,
      "Ġwon": 1569,
      "othes": 1570,
      "Ġlistened": 1571,
      "This": 1572,
      "ott": 1573,
      "Ġballoon": 1574,
      "Ġjoy": 1575,
      "ister": 1576,
      "ever": 1577,
      "Ġtail": 1578,
      "Ġalone": 1579,
      "Ġpet": 1580,
      "Ġmusic": 1581,
      "Ġbrought": 1582,
      "Ġtreat": 1583,
      "Ġpuppy": 1584,
      "alth": 1585,
      "ts": 1586,
      "Ġclothes": 1587,
      "Ġwasn": 1588,
      "Ġvisit": 1589,
      "Ġeverything": 1590,
      "Ġspl": 1591,
      "Ġem": 1592,
      "Ġsmiles": 1593,
      "Ġstrange": 1594,
      "Ġacc": 1595,
      "Ġpie": 1596,
      "Ġpot": 1597,
      "Ġwoods": 1598,
      "Ġspark": 1599,
      "ually": 1600,
      "Oh": 1601,
      "Ġfield": 1602,
      "Ġland": 1603,
      "me": 1604,
      "Ġride": 1605,
      "ames": 1606,
      "Ġsail": 1607,
      "Ġdanc": 1608,
      "ident": 1609,
      "oc": 1610,
      "Ġroll": 1611,
      "Ġfox": 1612,
      "uffy": 1613,
      "Ġdanger": 1614,
      "Ġpulled": 1615,
      "med": 1616,
      "Ġ3": 1617,
      "Ġdes": 1618,
      "ucky": 1619,
      "Ġjob": 1620,
      "Ġleave": 1621,
      "ng": 1622,
      "ape": 1623,
      "ope": 1624,
      "ained": 1625,
      "Ġtowards": 1626,
      "Ġcloud": 1627,
      "ĠAll": 1628,
      "cle": 1629,
      "zz": 1630,
      "Ġteddy": 1631,
      "apped": 1632,
      "ord": 1633,
      "ze": 1634,
      "Ġamazed": 1635,
      "Ġasks": 1636,
      "Ġhide": 1637,
      "Ġwaited": 1638,
      "Ġpen": 1639,
      "Ġwords": 1640,
      "ix": 1641,
      "Ġbelie": 1642,
      "Ġmust": 1643,
      "ĠJill": 1644,
      "Ġside": 1645,
      "Ġowner": 1646,
      "ĠSoon": 1647,
      "gs": 1648,
      "Ġliving": 1649,
      "Ġshared": 1650,
      "sw": 1651,
      "But": 1652,
      "Ġflying": 1653,
      "Ġmoney": 1654,
      "uit": 1655,
      "Ġparty": 1656,
      "Ġpromised": 1657,
      "Ġpass": 1658,
      "Ġwhich": 1659,
      "Ġpa": 1660,
      "Ġmoral": 1661,
      "cket": 1662,
      "come": 1663,
      "Ġplant": 1664,
      "ces": 1665,
      "Ġju": 1666,
      "Ġsilly": 1667,
      "Ġrace": 1668,
      "Ġansw": 1669,
      "less": 1670,
      "Ġlake": 1671,
      "unch": 1672,
      "Ġwin": 1673,
      "ises": 1674,
      "avy": 1675,
      "Ġpers": 1676,
      "ĠDaddy": 1677,
      "Ġsign": 1678,
      "Ġruns": 1679,
      "ming": 1680,
      "Ġtrain": 1681,
      "used": 1682,
      "Ġwear": 1683,
      "Ġreach": 1684,
      "Ġsister": 1685,
      "ract": 1686,
      "Ġcup": 1687,
      "Ġatt": 1688,
      "outh": 1689,
      "ĠFl": 1690,
      "eces": 1691,
      "Ġquiet": 1692,
      "Ġfaster": 1693,
      "Ġpieces": 1694,
      "ors": 1695,
      "fort": 1696,
      "Ġbott": 1697,
      "Ġgrate": 1698,
      "Ġdance": 1699,
      "igg": 1700,
      "wl": 1701,
      "Okay": 1702,
      "Ġriver": 1703,
      "Ġca": 1704,
      "Maybe": 1705,
      "Ġcolorful": 1706,
      "Ġmin": 1707,
      "Ġslowly": 1708,
      "Ġworried": 1709,
      "Ġthinks": 1710,
      "ible": 1711,
      "Ġgrateful": 1712,
      "ĠMary": 1713,
      "Ġsame": 1714,
      "Ġgif": 1715,
      "Ġbroke": 1716,
      "Ġve": 1717,
      "Ġsnack": 1718,
      "chool": 1719,
      "Ġblack": 1720,
      "Mommy": 1721,
      "Ġjoin": 1722,
      "Ġbigger": 1723,
      "Ġwel": 1724,
      "Ġcoll": 1725,
      "Ġacross": 1726,
      "Ġblank": 1727,
      "Ġbar": 1728,
      "ĠMr": 1729,
      "set": 1730,
      "Ġhelping": 1731,
      "Why": 1732,
      "br": 1733,
      "Ġhig": 1734,
      "Ġcandy": 1735,
      "Ġsmart": 1736,
      "Ġmagical": 1737,
      "Ġmonster": 1738,
      "ĠJust": 1739,
      "Ġmonkey": 1740,
      "Ġblanket": 1741,
      "Ġinv": 1742,
      "Ġbike": 1743,
      "Ġinst": 1744,
      "Ġprincess": 1745,
      "Ġtreasure": 1746,
      "iting": 1747,
      "Ġdangerous": 1748,
      "Ġkiss": 1749,
      "Ġeverywhere": 1750,
      "ored": 1751,
      "ho": 1752,
      "ier": 1753,
      "Ġschool": 1754,
      "Ġfarmer": 1755,
      "Ġact": 1756,
      "Ġdragon": 1757,
      "Ġpaint": 1758,
      "ĠMama": 1759,
      "Ġnap": 1760,
      "Ġscream": 1761,
      "Ġph": 1762,
      "cked": 1763,
      "pping": 1764,
      "Ġdisapp": 1765,
      "Ġben": 1766,
      "iver": 1767,
      "Sure": 1768,
      "Ġcour": 1769,
      "Ġheavy": 1770,
      "Ġmouth": 1771,
      "uct": 1772,
      "Ġfruit": 1773,
      "Ġwell": 1774,
      "Hi": 1775,
      "Ġ2": 1776,
      "eared": 1777,
      "Ġheart": 1778,
      "umb": 1779,
      "Ġspr": 1780,
      "ĠSt": 1781,
      "OK": 1782,
      "Ġdoctor": 1783,
      "Ġtower": 1784,
      "Ġbee": 1785,
      "Ġbowl": 1786,
      "Ġstand": 1787,
      "ener": 1788,
      "Ġbelieve": 1789,
      "Ġstepped": 1790,
      "Ġbite": 1791,
      "Ġdirty": 1792,
      "Ġcrying": 1793,
      "Ġwouldn": 1794,
      "Ġthrew": 1795,
      "althy": 1796,
      "Ġtown": 1797,
      "Ġ(": 1798,
      "Ġcarrot": 1799,
      "Ġbath": 1800,
      "Ġdolls": 1801,
      "asket": 1802,
      "ude": 1803,
      "pect": 1804,
      "Ġwithout": 1805,
      "Ġclosed": 1806,
      "Ġeating": 1807,
      "Ġstuck": 1808,
      "Ġteac": 1809,
      "Ġmix": 1810,
      "Ġbasket": 1811,
      "Ġtwins": 1812,
      "Ġbrown": 1813,
      "ĠCh": 1814,
      "Ġcourse": 1815,
      "Ġpack": 1816,
      "up": 1817,
      "Ġob": 1818,
      "ead": 1819,
      "ize": 1820,
      "ĠGrandma": 1821,
      "ourn": 1822,
      "Ġbuck": 1823,
      "Ġchair": 1824,
      "Ġhigher": 1825,
      "Ġsuddenly": 1826,
      "Ġfree": 1827,
      "bble": 1828,
      "ĠEmma": 1829,
      "Ġtoday": 1830,
      "oun": 1831,
      "Ġser": 1832,
      "Ġmark": 1833,
      "ventually": 1834,
      "Ġgentle": 1835,
      "Ġkey": 1836,
      "ipped": 1837,
      "Ġgames": 1838,
      "Ġhoped": 1839,
      "Ġclapped": 1840,
      "Ġjourn": 1841,
      "?âĢĿ": 1842,
      "Ġfairy": 1843,
      "Ġcray": 1844,
      "orrow": 1845,
      "Ġbutt": 1846,
      "ows": 1847,
      "Ġneigh": 1848,
      "Ġfeels": 1849,
      "Ġdrove": 1850,
      "Ġaccident": 1851,
      "Ġlate": 1852,
      "ĠJimmy": 1853,
      "Ġalong": 1854,
      "Ġneighb": 1855,
      "Ġpiece": 1856,
      "Ġlonger": 1857,
      "Ġswings": 1858,
      "Ġsmo": 1859,
      "Ġteacher": 1860,
      "Ġhit": 1861,
      "Ġpushed": 1862,
      "ĠInside": 1863,
      "Ġpocket": 1864,
      "Ġwelcome": 1865,
      "ĠOn": 1866,
      "iv": 1867,
      "ountain": 1868,
      "Ġexplained": 1869,
      "Ġyoung": 1870,
      "Ġsea": 1871,
      "ail": 1872,
      "Ġcorn": 1873,
      "Ġdry": 1874,
      "Ben": 1875,
      "itting": 1876,
      "ward": 1877,
      "Ġwings": 1878,
      "ek": 1879,
      "een": 1880,
      "Ġyard": 1881,
      "phant": 1882,
      "Ġforget": 1883,
      "reet": 1884,
      "Ġhappen": 1885,
      "Ġcheered": 1886,
      "Ġret": 1887,
      "Ġplac": 1888,
      "Ġpurp": 1889,
      "Ġapple": 1890,
      "ĠTw": 1891,
      "Ġsang": 1892,
      "ular": 1893,
      "Ġwhe": 1894,
      "Ġtom": 1895,
      "Ġneck": 1896,
      "let": 1897,
      "Ġshoes": 1898,
      "ĠMum": 1899,
      "ese": 1900,
      "Ġadventures": 1901,
      "ĠTheir": 1902,
      "Ġstories": 1903,
      "Ġsinging": 1904,
      "Ġstreet": 1905,
      "Ġupset": 1906,
      "Ġpop": 1907,
      "Ġwise": 1908,
      "Ġbelong": 1909,
      "Ġelephant": 1910,
      "Ġbring": 1911,
      "Ġturns": 1912,
      "Ġnoises": 1913,
      "Ġes": 1914,
      "to": 1915,
      "Ġlunch": 1916,
      "Ġsecret": 1917,
      "Ġpower": 1918,
      "Ġpast": 1919,
      "bby": 1920,
      "Ġtrou": 1921,
      "Ġtaking": 1922,
      "ond": 1923,
      "Ġstars": 1924,
      "Ġstar": 1925,
      "onely": 1926,
      "Ġlife": 1927,
      "Ġlonely": 1928,
      "ush": 1929,
      "Ġrec": 1930,
      "Ġperson": 1931,
      "Ġexploring": 1932,
      "Ġshap": 1933,
      "Ġmoved": 1934,
      "Anna": 1935,
      "Ġhugs": 1936,
      "Ġnearby": 1937,
      "Ġshop": 1938,
      "Ġowl": 1939,
      "Ġwish": 1940,
      "Ġsoup": 1941,
      "read": 1942,
      "ten": 1943,
      "Ġfence": 1944,
      "ert": 1945,
      "Ġdrink": 1946,
      "ĠFluffy": 1947,
      "fused": 1948,
      "ness": 1949,
      "yard": 1950,
      "Ġcaught": 1951,
      "Ġshook": 1952,
      "ocked": 1953,
      "Ġsent": 1954,
      "ĠAl": 1955,
      "Ġmine": 1956,
      "Ġsuc": 1957,
      "Ġorange": 1958,
      "Ġthough": 1959,
      "Ġjar": 1960,
      "Ġmil": 1961,
      "Ġbackyard": 1962,
      "Do": 1963,
      "aughty": 1964,
      "ult": 1965,
      "Ġnaughty": 1966,
      "ung": 1967,
      "Ġrocks": 1968,
      "erest": 1969,
      "Ġrelie": 1970,
      "Ġseemed": 1971,
      "llo": 1972,
      "Ġfarm": 1973,
      "ĠLater": 1974,
      "aughter": 1975,
      "Ġcir": 1976,
      "Ġdropped": 1977,
      "Ġfit": 1978,
      "Ġreturn": 1979,
      "ining": 1980,
      "els": 1981,
      "Ġswam": 1982,
      "Ġinterest": 1983,
      "Ġent": 1984,
      "Ġpurple": 1985,
      "ĠSammy": 1986,
      "Ġmail": 1987,
      "Ġwoke": 1988,
      "Ġbucket": 1989,
      "ĠThank": 1990,
      "ball": 1991,
      "Ġeas": 1992,
      "sent": 1993,
      "ĠAn": 1994,
      "Ġshapes": 1995,
      "ian": 1996,
      "ĠWith": 1997,
      "ssed": 1998,
      "pper": 1999,
      "sy": 2000,
      "ced": 2001,
      "ub": 2002,
      "Ġnest": 2003,
      "Ġcou": 2004,
      "Ġtakes": 2005,
      "Ġsounds": 2006,
      "gr": 2007,
      "Ġprot": 2008,
      "Ġbench": 2009,
      "Ġaf": 2010,
      "blem": 2011,
      "Ġval": 2012,
      "Ġtiny": 2013,
      "anch": 2014,
      "Ġsitting": 2015,
      "Ġrainb": 2016,
      "Ġbusy": 2017,
      "ours": 2018,
      "Ġmed": 2019,
      "ĠWh": 2020,
      "umber": 2021,
      "Ġproblem": 2022,
      "la": 2023,
      "Ġnothing": 2024,
      "unt": 2025,
      "Ġdaughter": 2026,
      "Ġmach": 2027,
      "Ġwondered": 2028,
      "Ġdays": 2029,
      "Ġnose": 2030,
      "thday": 2031,
      "Ġjuice": 2032,
      "Ġpeace": 2033,
      "idge": 2034,
      "fish": 2035,
      "Ġarms": 2036,
      "cks": 2037,
      "Ġcomes": 2038,
      "vered": 2039,
      "Ġpig": 2040,
      "Ġear": 2041,
      "gy": 2042,
      "Ġletter": 2043,
      "Ġdist": 2044,
      "Ġpatient": 2045,
      "Ġkite": 2046,
      "Ġbranch": 2047,
      "Ġdriver": 2048,
      "Ġmad": 2049,
      "Ġholding": 2050,
      "Ġcoat": 2051,
      "Ġcarry": 2052,
      "eth": 2053,
      "Ġorgan": 2054,
      "Ġking": 2055,
      "ates": 2056,
      "ĠTweet": 2057,
      "Ġimag": 2058,
      "ĠEll": 2059,
      "Ġforever": 2060,
      "Ġlar": 2061,
      "board": 2062,
      "ont": 2063,
      "Ġround": 2064,
      "raid": 2065,
      "Ġjourney": 2066,
      "Ġdisco": 2067,
      "Ġgift": 2068,
      "Ġafraid": 2069,
      "Ġrelieved": 2070,
      "Ġrep": 2071,
      "Ġcheese": 2072,
      "Ġcute": 2073,
      "Ġsick": 2074,
      "Ġsur": 2075,
      "als": 2076,
      "Ġcal": 2077,
      "Ġspoon": 2078,
      "Ġboun": 2079,
      "Of": 2080,
      "Ġsol": 2081,
      "Ġband": 2082,
      "Ġcollect": 2083,
      "ove": 2084,
      "Ġsunny": 2085,
      "Ġquest": 2086,
      "Ġlift": 2087,
      "ittens": 2088,
      "Ġhuge": 2089,
      "Ġbirthday": 2090,
      "irt": 2091,
      "Ġonto": 2092,
      "ans": 2093,
      "Ġpromise": 2094,
      "Ġfing": 2095,
      "Ġexciting": 2096,
      "ped": 2097,
      "Ġcreature": 2098,
      "Ġinstead": 2099,
      "Ġtou": 2100,
      "Ġtouched": 2101,
      "Ġpar": 2102,
      "Ġcomfort": 2103,
      "Ġmeet": 2104,
      "Ġhello": 2105,
      "Sara": 2106,
      "ider": 2107,
      "Ġmist": 2108,
      "Ġeg": 2109,
      "itch": 2110,
      "Ġwide": 2111,
      "Ġaccidentally": 2112,
      "Ġmilk": 2113,
      "Ġlaughing": 2114,
      "Ġswimming": 2115,
      "Ġbread": 2116,
      "Tim": 2117,
      "aur": 2118,
      "Ġrainbow": 2119,
      "Ġhope": 2120,
      "arp": 2121,
      "Ġhealthy": 2122,
      "itten": 2123,
      "shine": 2124,
      "ĠHow": 2125,
      "Ġlater": 2126,
      "Ġcozy": 2127,
      "Ġgrab": 2128,
      "ĠCome": 2129,
      "Ġprotect": 2130,
      "Ġgigg": 2131,
      "Ġhor": 2132,
      "Ġkick": 2133,
      "Ġsupp": 2134,
      "Ġce": 2135,
      "epend": 2136,
      "Ġroad": 2137,
      "Ġpract": 2138,
      "oman": 2139,
      "Ġshell": 2140,
      "Ġthrow": 2141,
      "gged": 2142,
      "adow": 2143,
      "Ġbreat": 2144,
      "Ġwatching": 2145,
      "Ġspin": 2146,
      "Ġbush": 2147,
      "Ġbottle": 2148,
      "Hey": 2149,
      "Ġspo": 2150,
      "Ġwra": 2151,
      "Ġsharp": 2152,
      "Ġsunshine": 2153,
      "etw": 2154,
      "reate": 2155,
      "Ġpresent": 2156,
      "Ġwhist": 2157,
      "Ġgather": 2158,
      "ĠJenny": 2159,
      "Ġbought": 2160,
      "ĠEmily": 2161,
      "ork": 2162,
      "Ġcave": 2163,
      "Ġapples": 2164,
      "Ġhum": 2165,
      "ale": 2166,
      "Ġhoney": 2167,
      "Ġsandw": 2168,
      "Ġtalked": 2169,
      "Ġinteresting": 2170,
      "uce": 2171,
      "Ġstu": 2172,
      "ndp": 2173,
      "Ġanyone": 2174,
      "Ġsearched": 2175,
      "mb": 2176,
      "Ġlucky": 2177,
      "ations": 2178,
      "Ġpudd": 2179,
      "Ġpointed": 2180,
      "eb": 2181,
      "Ġgives": 2182,
      "olog": 2183,
      "Ġvill": 2184,
      "Ġadm": 2185,
      "Ġgener": 2186,
      "Ġmatter": 2187,
      "Ġsmiling": 2188,
      "Ġpath": 2189,
      "Ġmachine": 2190,
      "Ġstorm": 2191,
      "Ġminut": 2192,
      "Ġwoman": 2193,
      "ĠLe": 2194,
      "Ġ'": 2195,
      "Ġputs": 2196,
      "ps": 2197,
      "Ġsearch": 2198,
      "ject": 2199,
      "Ġap": 2200,
      "Ġplane": 2201,
      "owed": 2202,
      "Ġtasty": 2203,
      "Ġclouds": 2204,
      "Good": 2205,
      "amed": 2206,
      "Ġeag": 2207,
      "Ġfollowing": 2208,
      "Ġlast": 2209,
      "Come": 2210,
      "Ġreg": 2211,
      "Ġloves": 2212,
      "lex": 2213,
      "ature": 2214,
      "Ġhon": 2215,
      "Ġpile": 2216,
      "Ġtrouble": 2217,
      "ato": 2218,
      "Ġshining": 2219,
      "Ġfeather": 2220,
      "Ġclever": 2221,
      "Ġfront": 2222,
      "Ġrespect": 2223,
      "Ġwild": 2224,
      "Ġzoom": 2225,
      "Ġind": 2226,
      "oose": 2227,
      "Ġducks": 2228,
      "cean": 2229,
      "Ġlive": 2230,
      "ition": 2231,
      "Ġanswer": 2232,
      "Ġcrayons": 2233,
      "ual": 2234,
      "Ġpill": 2235,
      "ndpa": 2236,
      "Ġlarge": 2237,
      "ĠGo": 2238,
      "Ġmyster": 2239,
      "Ġthin": 2240,
      "ost": 2241,
      "Ġsmelled": 2242,
      "Ġdi": 2243,
      "Ġbutton": 2244,
      "Ġmud": 2245,
      "Ġseat": 2246,
      "Ġrope": 2247,
      "ĠMittens": 2248,
      "Ġlay": 2249,
      "Ġdanced": 2250,
      "mon": 2251,
      "Ġplaces": 2252,
      "Jo": 2253,
      "Ġteach": 2254,
      "Ġappeared": 2255,
      "Ġspotted": 2256,
      "Ġcheer": 2257,
      "Ġzoo": 2258,
      "cc": 2259,
      "Ġpuzz": 2260,
      "Ġexp": 2261,
      "Ġmind": 2262,
      "Ġwhole": 2263,
      "Ġincl": 2264,
      "nic": 2265,
      "ab": 2266,
      "ones": 2267,
      "ory": 2268,
      "ital": 2269,
      "ides": 2270,
      "Ġneighbor": 2271,
      "ating": 2272,
      "isa": 2273,
      "Ġcard": 2274,
      "Ġscreamed": 2275,
      "ĠJake": 2276,
      "Ġsnake": 2277,
      "Ġphone": 2278,
      "ĠTogether": 2279,
      "Ġocean": 2280,
      "ĠSomet": 2281,
      "Ġsal": 2282,
      "Ġasleep": 2283,
      "Ġhorse": 2284,
      "Ġclass": 2285,
      "Ġstep": 2286,
      "Ġgiant": 2287,
      "Ġwearing": 2288,
      "Ġsour": 2289,
      "Ġlovely": 2290,
      "Ġgently": 2291,
      "iness": 2292,
      "Ġfoot": 2293,
      "ĠBe": 2294,
      "ife": 2295,
      "00": 2296,
      "Ġstring": 2297,
      "Ġmountain": 2298,
      "Ġdrive": 2299,
      "Ġsnowman": 2300,
      "Ġimpress": 2301,
      "Ġshr": 2302,
      "Ġcow": 2303,
      "cy": 2304,
      "Ġpri": 2305,
      "Ġbark": 2306,
      "eterm": 2307,
      "Ġcorner": 2308,
      "Ġtool": 2309,
      "Ġsuccess": 2310,
      "Ġspe": 2311,
      "Ġgoes": 2312,
      "ocol": 2313,
      "Ġspent": 2314,
      "Ġpicnic": 2315,
      "ric": 2316,
      "ĠAnn": 2317,
      "St": 2318,
      "Ġsel": 2319,
      "Ġdirt": 2320,
      "Ġfeet": 2321,
      "Ġnumber": 2322,
      "izz": 2323,
      "Ġrob": 2324,
      "Ġsplas": 2325,
      "itty": 2326,
      "Ġconfused": 2327,
      "Ġtasted": 2328,
      "Ġrolled": 2329,
      "ears": 2330,
      "Ġthese": 2331,
      "Ġspread": 2332,
      "Ġoven": 2333,
      "Ġgiven": 2334,
      "Ġant": 2335,
      "ator": 2336,
      "fl": 2337,
      "unk": 2338,
      "Ġash": 2339,
      "Ġje": 2340,
      "Ġchick": 2341,
      "Ġbuilding": 2342,
      "Ġcalm": 2343,
      "Ġteeth": 2344,
      "My": 2345,
      "Ġemb": 2346,
      "lder": 2347,
      "Ġeventually": 2348,
      "Ġdelight": 2349,
      "Ġtries": 2350,
      "Ġpour": 2351,
      "Ġrude": 2352,
      "Ġforgive": 2353,
      "Ġban": 2354,
      "Ġspider": 2355,
      "Ġmod": 2356,
      "Ġdeterm": 2357,
      "Ġcookie": 2358,
      "Ġprov": 2359,
      "Ġwave": 2360,
      "Ġtrip": 2361,
      "Ġusing": 2362,
      "ĠĠĠĠ": 2363,
      "Ġremind": 2364,
      "Ġwrite": 2365,
      "Ġchocol": 2366,
      "ĠLisa": 2367,
      "Ġcoo": 2368,
      "Ġfurry": 2369,
      "Ġcart": 2370,
      "ets": 2371,
      "Ġpretended": 2372,
      "Ġvillage": 2373,
      "Ġworm": 2374,
      "ird": 2375,
      "Ġtalking": 2376,
      "Ġtomorrow": 2377,
      "Ġcap": 2378,
      "oin": 2379,
      "Ġrobot": 2380,
      "osp": 2381,
      "Ġfaces": 2382,
      "Ġstra": 2383,
      "Ġlad": 2384,
      "not": 2385,
      "com": 2386,
      "Ġring": 2387,
      "Ġwip": 2388,
      "Ġsmooth": 2389,
      "Ġtun": 2390,
      "Ġshy": 2391,
      "ĠBu": 2392,
      "old": 2393,
      "Ġadd": 2394,
      "ying": 2395,
      "Ġoften": 2396,
      "ĠPeter": 2397,
      "Ġign": 2398,
      "gin": 2399,
      "Ġgroup": 2400,
      "Ġcross": 2401,
      "Ġlead": 2402,
      "Ġbubble": 2403,
      "lebr": 2404,
      "Ġcoin": 2405,
      "Ġveget": 2406,
      "aking": 2407,
      "Ġtid": 2408,
      "act": 2409,
      "Ġeager": 2410,
      "Ġcreative": 2411,
      "land": 2412,
      "Ġstret": 2413,
      "Ġfinish": 2414,
      "ina": 2415,
      "Ġwore": 2416,
      "Ġdat": 2417,
      "ĠBr": 2418,
      "Ġsongs": 2419,
      "Ġbanan": 2420,
      "sc": 2421,
      "Ġav": 2422,
      "Ġblew": 2423,
      "ĠZ": 2424,
      "leased": 2425,
      "Ġcelebr": 2426,
      "Ġcouch": 2427,
      "Ġpush": 2428,
      "Ġladder": 2429,
      "Ġtreats": 2430,
      "John": 2431,
      "arra": 2432,
      "Ġwhenever": 2433,
      "Ġchased": 2434,
      "Ġtaste": 2435,
      "ustr": 2436,
      "ote": 2437,
      "Ġchocolate": 2438,
      "Ġcannot": 2439,
      "Ġpool": 2440,
      "Ġwaiting": 2441,
      "Ġhiding": 2442,
      "Ġvegetable": 2443,
      "Ġfighting": 2444,
      "Ġfixed": 2445,
      "Ġembarra": 2446,
      "Ġbell": 2447,
      "Ġknee": 2448,
      "Ġstir": 2449,
      "ighed": 2450,
      "Ġtest": 2451,
      "Ġline": 2452,
      "Ġbugs": 2453,
      "lves": 2454,
      "ĠTeddy": 2455,
      "ience": 2456,
      "de": 2457,
      "Ġneckl": 2458,
      "Ġbal": 2459,
      "ĠSometimes": 2460,
      "Please": 2461,
      "box": 2462,
      "tern": 2463,
      "Ġgas": 2464,
      "Ġpuddle": 2465,
      "Ġshelf": 2466,
      "Ġleaf": 2467,
      "ĠSus": 2468,
      "Ġpeaceful": 2469,
      "Ġbarked": 2470,
      "Ġselfish": 2471,
      "arm": 2472,
      "Ġpaw": 2473,
      "Ġfil": 2474,
      "Ġmoon": 2475,
      "Ġteam": 2476,
      "umpy": 2477,
      "most": 2478,
      "Ġcrab": 2479,
      "ĠEverywhere": 2480,
      "Ġsack": 2481,
      "Ġstone": 2482,
      "ical": 2483,
      "Ġsentence": 2484,
      "Ġtrust": 2485,
      "ĠSome": 2486,
      "Ġref": 2487,
      "ĠUn": 2488,
      "ery": 2489,
      "Ġnut": 2490,
      "ĠWhile": 2491,
      "Ġmaybe": 2492,
      "Ġwash": 2493,
      "arl": 2494,
      "Ġforward": 2495,
      "Ġpay": 2496,
      "Ġhel": 2497,
      "ches": 2498,
      "ĠBl": 2499,
      "dle": 2500,
      "ĠTV": 2501,
      "ungle": 2502,
      "Ġdecor": 2503,
      "Ġcloth": 2504,
      "Ġspray": 2505,
      "Ġscar": 2506,
      "ground": 2507,
      "Ġlearning": 2508,
      "Ġext": 2509,
      "Ġemp": 2510,
      "airs": 2511,
      "Ġcolour": 2512,
      "Ġjungle": 2513,
      "Ġmissed": 2514,
      "Ġsharing": 2515,
      "ned": 2516,
      "que": 2517,
      "Ġhours": 2518,
      "ony": 2519,
      "Ġhonest": 2520,
      "elly": 2521,
      "Ġrad": 2522,
      "uggest": 2523,
      "Ġsave": 2524,
      "ĠPlease": 2525,
      "Ġplants": 2526,
      "Ġjumping": 2527,
      "Ġtea": 2528,
      "Ġchange": 2529,
      "den": 2530,
      "Ġshirt": 2531,
      "Ġembarrassed": 2532,
      "Ġlanded": 2533,
      "Ġmot": 2534,
      "ĠDon": 2535,
      "Ġcarrots": 2536,
      "Ġalmost": 2537,
      "vie": 2538,
      "Ġmeant": 2539,
      "ĠBo": 2540,
      "Ġnecklace": 2541,
      "vice": 2542,
      "Ġ19": 2543,
      "Ġpowerful": 2544,
      "io": 2545,
      "Ġbreath": 2546,
      "Ġtidy": 2547,
      "ĠEven": 2548,
      "cept": 2549,
      "Ġed": 2550,
      "Ġwhis": 2551,
      "Ġknocked": 2552,
      "Ġsticks": 2553,
      "Ġeasy": 2554,
      "Ġlegs": 2555,
      "Ġstood": 2556,
      "Ġtightly": 2557,
      "Ġgrew": 2558,
      "Ġminutes": 2559,
      "Ġdisappoin": 2560,
      "Ġplate": 2561,
      "ages": 2562,
      "owing": 2563,
      "Ġempty": 2564,
      "Ġcraw": 2565,
      "Ġgold": 2566,
      "erp": 2567,
      "ĠLittle": 2568,
      "Ġgray": 2569,
      "hin": 2570,
      "uring": 2571,
      "Ġcarried": 2572,
      "ially": 2573,
      "Ġfeed": 2574,
      "Ġener": 2575,
      "orry": 2576,
      "ancy": 2577,
      "olf": 2578,
      "Ġcost": 2579,
      "Ġter": 2580,
      "Where": 2581,
      "Ġhears": 2582,
      "Ġwhistle": 2583,
      "Ġunderstood": 2584,
      "Ġhosp": 2585,
      "Ġashamed": 2586,
      "Ġfig": 2587,
      "Ġship": 2588,
      "Ġmeadow": 2589,
      "Ġsnacks": 2590,
      "ĠJohnny": 2591,
      "Ġmarket": 2592,
      "ict": 2593,
      "etween": 2594,
      "af": 2595,
      "Ġber": 2596,
      "ĠMummy": 2597,
      "Ġhospital": 2598,
      "Ġcirc": 2599,
      "Ġsheep": 2600,
      "Ġsplash": 2601,
      "vous": 2602,
      "Ġjew": 2603,
      "Ġhidden": 2604,
      "Ġtells": 2605,
      "ustom": 2606,
      "izza": 2607,
      "iding": 2608,
      "iff": 2609,
      "Ġpolice": 2610,
      "Ġglass": 2611,
      "Ġseed": 2612,
      "Ġwaves": 2613,
      "Ġmysterious": 2614,
      "Ġbetween": 2615,
      "Ġworking": 2616,
      "ĠWhy": 2617,
      "Ġword": 2618,
      "Ġdetermined": 2619,
      "Ġyelled": 2620,
      "ĠAlice": 2621,
      "Ġmatch": 2622,
      "Ġmid": 2623,
      "Ġdisappointed": 2624,
      "Ġdata": 2625,
      "Ġstanding": 2626,
      "urse": 2627,
      "port": 2628,
      "Ġfrustr": 2629,
      "Ġhur": 2630,
      "Ġreturned": 2631,
      "ano": 2632,
      "Ġcontent": 2633,
      "Ġknowing": 2634,
      "ensive": 2635,
      "Ġsparkly": 2636,
      "Ġkitten": 2637,
      "Ġleg": 2638,
      "Ġdesign": 2639,
      "Ġpan": 2640,
      "Ġtaught": 2641,
      "Ġseek": 2642,
      "fic": 2643,
      "Ġmanag": 2644,
      "Ġbecome": 2645,
      "Ġbedroom": 2646,
      "Ġsandwich": 2647,
      "Ġchew": 2648,
      "Ġshore": 2649,
      "Ġgenerous": 2650,
      "Ġpassed": 2651,
      "ĠMark": 2652,
      "Sam": 2653,
      "light": 2654,
      "Ġbody": 2655,
      "Ġbored": 2656,
      "Ġchang": 2657,
      "Ġpizza": 2658,
      "Ġlit": 2659,
      "era": 2660,
      "Ġsold": 2661,
      "Ġyourself": 2662,
      "kin": 2663,
      "Ġart": 2664,
      "Ġnods": 2665,
      "Ġpuzzle": 2666,
      "ĠMar": 2667,
      "Ġprince": 2668,
      "asing": 2669,
      "Ġfear": 2670,
      "Ġspend": 2671,
      "Ġperform": 2672,
      "Ġner": 2673,
      "Who": 2674,
      "Ġwolf": 2675,
      "Ġcomput": 2676,
      "arth": 2677,
      "ices": 2678,
      "Ġtrue": 2679,
      "'d": 2680,
      "ĠLeo": 2681,
      "Ġscarf": 2682,
      "yp": 2683,
      "Ġspicy": 2684,
      "Ġprod": 2685,
      "Ġesc": 2686,
      "ately": 2687,
      "pec": 2688,
      "osaur": 2689,
      "Ġdrew": 2690,
      "Ġtick": 2691,
      "Ġvegetables": 2692,
      "selves": 2693,
      "Ġnervous": 2694,
      "Ġjelly": 2695,
      "Ġtaken": 2696,
      "There": 2697,
      "Ġenergy": 2698,
      "Ġpoor": 2699,
      "Ġthankful": 2700,
      "Ġfrustrated": 2701,
      "Ġexper": 2702,
      "Ġsighed": 2703,
      "Ġgun": 2704,
      "Ġsleepy": 2705,
      "Ġcustom": 2706,
      "Ġfinger": 2707,
      "Ġvan": 2708,
      "Ġlock": 2709,
      "Ġbridge": 2710,
      "ots": 2711,
      "ĠFr": 2712,
      "Ġfancy": 2713,
      "Ġmessy": 2714,
      "Ġdest": 2715,
      "Ġfour": 2716,
      "Ġeff": 2717,
      "Ġspoil": 2718,
      "illed": 2719,
      "Ġburn": 2720,
      "Ġcand": 2721,
      "ugar": 2722,
      "Ġhang": 2723,
      "Ġpir": 2724,
      "Stop": 2725,
      "ella": 2726,
      "Ġcaterp": 2727,
      "Ġcaterpill": 2728,
      "Ġexcite": 2729,
      "Ġpin": 2730,
      "Ġflag": 2731,
      "Ġgathered": 2732,
      "Ġcreate": 2733,
      "Ġdig": 2734,
      "ination": 2735,
      "Ġcloset": 2736,
      "Ġgate": 2737,
      "Ġexpensive": 2738,
      "itter": 2739,
      "Ġquestions": 2740,
      "ĠRex": 2741,
      "Ġweek": 2742,
      "Ġgrumpy": 2743,
      "Ġdinosaur": 2744,
      "pecially": 2745,
      "Are": 2746,
      "Ġmiddle": 2747,
      "issors": 2748,
      "Ġsuggest": 2749,
      "ique": 2750,
      "ĠSusie": 2751,
      "Ġanswered": 2752,
      "gly": 2753,
      "ĠIf": 2754,
      "pack": 2755,
      "Ġchest": 2756,
      "Ġcity": 2757,
      "Ġkissed": 2758,
      "Ġespecially": 2759,
      "Ġsugar": 2760,
      "ities": 2761,
      "ror": 2762,
      "Ġones": 2763,
      "Ġhopping": 2764,
      "Ġtwirl": 2765,
      "Ġdiffic": 2766,
      "oof": 2767,
      "Ġscissors": 2768,
      "Ġmeasure": 2769,
      "Ġscr": 2770,
      "Ġdeer": 2771,
      "ines": 2772,
      "Ġugly": 2773,
      "body": 2774,
      "Ġsaved": 2775,
      "Ġfruits": 2776,
      "Ġfamous": 2777,
      "Ġeng": 2778,
      "Ġexcitement": 2779,
      "Ġdistance": 2780,
      "Ġcaterpillar": 2781,
      "cri": 2782,
      "hip": 2783,
      "izzy": 2784,
      "Ġclear": 2785,
      "ĠV": 2786,
      "angu": 2787,
      "Ġeggs": 2788,
      "Ġneeds": 2789,
      "yal": 2790,
      "ging": 2791,
      "Ġmummy": 2792,
      "Ġcur": 2793,
      "Ġtears": 2794,
      "eat": 2795,
      "imp": 2796,
      "Ġasking": 2797,
      "ete": 2798,
      "Ġcries": 2799,
      "Sorry": 2800,
      "Ġcomfortable": 2801,
      "Ġwagged": 2802,
      "Ġstat": 2803,
      "Ġnet": 2804,
      "Ġtask": 2805,
      "Ġok": 2806,
      "ĠBlue": 2807,
      "Ġcrown": 2808,
      "Ġpleased": 2809,
      "ĠNo": 2810,
      "Ġmedic": 2811,
      "Ġcheck": 2812,
      "Ġboss": 2813,
      "Ġvase": 2814,
      "Ġboring": 2815,
      "Ġaw": 2816,
      "aw": 2817,
      "Ġwis": 2818,
      "Ġsight": 2819,
      "Ġtig": 2820,
      "Ġdifficult": 2821,
      "Ġjog": 2822,
      "ĠĠĠ": 2823,
      "Ġenv": 2824,
      "Ġmistake": 2825,
      "Ġdogs": 2826,
      "Ġbrush": 2827,
      "Ġtie": 2828,
      "Ġtent": 2829,
      "Ġmir": 2830,
      "Ġdancing": 2831,
      "Ġdrum": 2832,
      "Ġrocket": 2833,
      "Ġpacked": 2834,
      "Ġgiggled": 2835,
      "bs": 2836,
      "Ġmoving": 2837,
      "Ġunique": 2838,
      "Ġknight": 2839,
      "Ġloyal": 2840,
      "Ġstuff": 2841,
      "Ġgets": 2842,
      "Ġexam": 2843,
      "Ġcage": 2844,
      "oop": 2845,
      "Ġclown": 2846,
      "Ġimpro": 2847,
      "Ġyog": 2848,
      "How": 2849,
      "Ġwander": 2850,
      "Ġlangu": 2851,
      "Ġdrawing": 2852,
      "ĠToday": 2853,
      "Ġmedicine": 2854,
      "Ġpicks": 2855,
      "Ġbake": 2856,
      "Ġincre": 2857,
      "ĠKitty": 2858,
      "ushed": 2859,
      "Ġincred": 2860,
      "ĠDan": 2861,
      "Ġfake": 2862,
      "ĠBobby": 2863,
      "Ġfigure": 2864,
      "illi": 2865,
      "Ġweak": 2866,
      "Ġcri": 2867,
      "Ġsell": 2868,
      "ured": 2869,
      "Ġfis": 2870,
      "icro": 2871,
      "Ġlying": 2872,
      "Ġelder": 2873,
      "ĠEventually": 2874,
      "Ġfold": 2875,
      "Ġlemon": 2876,
      "Ġfeathers": 2877,
      "Ġdish": 2878,
      "Ġglue": 2879,
      "Ġord": 2880,
      "Ġflut": 2881,
      "ents": 2882,
      "Ġwalks": 2883,
      "Ġ20": 2884,
      "Ġfather": 2885,
      "Ġlazy": 2886,
      "Ġbone": 2887,
      "Ġtwist": 2888,
      "Ġsweetie": 2889,
      "Ġmovie": 2890,
      "Ġorder": 2891,
      "Ġrelax": 2892,
      "Ġwrote": 2893,
      "Ġpray": 2894,
      "Ġlose": 2895,
      "Ġinf": 2896,
      "ific": 2897,
      "Ġvalu": 2898,
      "Ġsplashed": 2899,
      "Ġdisappeared": 2900,
      "Ġsum": 2901,
      "Ġways": 2902,
      "Ġelderly": 2903,
      "Ġhelps": 2904,
      "Ġarg": 2905,
      "Ġmay": 2906,
      "Ġshows": 2907,
      "Ġmem": 2908,
      "Ġgar": 2909,
      "Ġsmelly": 2910,
      "ray": 2911,
      "Ġagainst": 2912,
      "Ġcalling": 2913,
      "ha": 2914,
      "Ġcompet": 2915,
      "Ġtem": 2916,
      "Ġrecord": 2917,
      "Ġplayground": 2918,
      "Ġpopular": 2919,
      "cil": 2920,
      "Ġmap": 2921,
      "Ġlog": 2922,
      "Ġbathroom": 2923,
      "Ġenc": 2924,
      "uth": 2925,
      "Ġcover": 2926,
      "Ġnews": 2927,
      "Ġclap": 2928,
      "ision": 2929,
      "Ġhorn": 2930,
      "Ġtyp": 2931,
      "Ġlicked": 2932,
      "Ġboard": 2933,
      "Ġrich": 2934,
      "Ġ5": 2935,
      "Ġrare": 2936,
      "Ġroar": 2937,
      "?\".": 2938,
      "ĠOK": 2939,
      "Ġbalance": 2940,
      "ĠFred": 2941,
      "Ġextra": 2942,
      "Now": 2943,
      "Ġstraw": 2944,
      "Ġcovered": 2945,
      "head": 2946,
      "Ġincredible": 2947,
      "Ġfive": 2948,
      "ĠEllie": 2949,
      "Ġisland": 2950,
      "Ġmirror": 2951,
      "Ġfluffy": 2952,
      "Ġwheel": 2953,
      "Ġori": 2954,
      "Ġnoisy": 2955,
      "Ġchicken": 2956,
      "ĠEnd": 2957,
      "ĠPete": 2958,
      "Ġmoms": 2959,
      "itive": 2960,
      "ume": 2961,
      "eez": 2962,
      "umbers": 2963,
      "Ġnod": 2964,
      "Ġorganized": 2965,
      "rop": 2966,
      "iron": 2967,
      "work": 2968,
      "Ġdiscovered": 2969,
      "Ġyours": 2970,
      "Ġlamp": 2971,
      "ilt": 2972,
      "Ġstudy": 2973,
      "ĠBrown": 2974,
      "any": 2975,
      ",âĢĿ": 2976,
      "anches": 2977,
      "Ġtag": 2978,
      "ellig": 2979,
      "rag": 2980,
      "Ġqueen": 2981,
      "Ġdepend": 2982,
      "ement": 2983,
      "Ġskipped": 2984,
      "Ġjuicy": 2985,
      "Ġmarch": 2986,
      "Ġdrank": 2987,
      "ti": 2988,
      "Ġshoot": 2989,
      "Ġmeans": 2990,
      "Ġbatter": 2991,
      "Ġstones": 2992,
      "Ġsoap": 2993,
      "Ġbranches": 2994,
      "Ġborrow": 2995,
      "Ġtape": 2996,
      "Ġguit": 2997,
      "Ġobject": 2998,
      "ef": 2999,
      "Ġspace": 3000,
      "Ġeye": 3001,
      "umbled": 3002,
      "Ġonce": 3003,
      "Ġmicro": 3004,
      "Ġsailed": 3005,
      "Ġballs": 3006,
      "Ġoffered": 3007,
      "Ġjoke": 3008,
      "aser": 3009,
      "Ġorigin": 3010,
      "Ġthick": 3011,
      "imed": 3012,
      "Ġdecide": 3013,
      "Ġsuccessful": 3014,
      "ince": 3015,
      "Ġruined": 3016,
      "ĠMandy": 3017,
      "Ġmotor": 3018,
      "Ġlaw": 3019,
      "Ġcleaned": 3020,
      "elp": 3021,
      "phone": 3022,
      "Ġpillow": 3023,
      "Ġcoins": 3024,
      "Ġsil": 3025,
      "Ġham": 3026,
      "Ġlow": 3027,
      "Ġtiger": 3028,
      "Be": 3029,
      "eor": 3030,
      "Ġbottom": 3031,
      "Ġfine": 3032,
      "isk": 3033,
      "cient": 3034,
      "lies": 3035,
      "keep": 3036,
      "urous": 3037,
      "Ġrealised": 3038,
      "Ġcircle": 3039,
      "Ġadventurous": 3040,
      "Ġtimes": 3041,
      "ĠElla": 3042,
      "Ġturt": 3043,
      "ready": 3044,
      "Well": 3045,
      "iable": 3046,
      "Ġcomputer": 3047,
      "Ġguitar": 3048,
      "Ġchar": 3049,
      "Ġpainting": 3050,
      "ĠRose": 3051,
      "oph": 3052,
      "Ġdolp": 3053,
      "Ġtoug": 3054,
      "Ġtowel": 3055,
      "ĠTweety": 3056,
      "Ġbarn": 3057,
      "Ġadded": 3058,
      "Ġboys": 3059,
      "ither": 3060,
      "Ġalready": 3061,
      "gest": 3062,
      "alous": 3063,
      "Ġhunt": 3064,
      "Ġsaf": 3065,
      "He": 3066,
      "Ġlibr": 3067,
      "Ġfre": 3068,
      "Ġnumbers": 3069,
      "Help": 3070,
      "Ġhappening": 3071,
      "Ġapolog": 3072,
      "Ġbubbles": 3073,
      "alk": 3074,
      "Ġmanaged": 3075,
      "ormal": 3076,
      "Ġpencil": 3077,
      "ĠBella": 3078,
      "ĠBobo": 3079,
      "Ġjealous": 3080,
      "Ġknife": 3081,
      "Ġweird": 3082,
      "Ġlifted": 3083,
      "Ġfrown": 3084,
      "Ġgiving": 3085,
      "rage": 3086,
      "Ġstream": 3087,
      "Ġsaying": 3088,
      "Ġcolourful": 3089,
      "az": 3090,
      "ĠCl": 3091,
      "ola": 3092,
      "Ġmoder": 3093,
      "ddy": 3094,
      "Ġstri": 3095,
      "Ġengine": 3096,
      "cing": 3097,
      "ify": 3098,
      "Ġfright": 3099,
      "Ġaccept": 3100,
      "Ġhose": 3101,
      "ipp": 3102,
      "Ġkindness": 3103,
      "Ġbanana": 3104,
      "fast": 3105,
      "Ġjewel": 3106,
      "dom": 3107,
      "Ġstrawber": 3108,
      "ention": 3109,
      "Ġgarage": 3110,
      "Ġcrawled": 3111,
      "Ġtools": 3112,
      "Ġtough": 3113,
      "Ġang": 3114,
      "ĠMrs": 3115,
      "Me": 3116,
      "und": 3117,
      "Ġedge": 3118,
      "Ġbald": 3119,
      "ms": 3120,
      "Ġfat": 3121,
      "Ġwand": 3122,
      "Ġchoose": 3123,
      "Ġballoons": 3124,
      "Ġguess": 3125,
      "Ġshape": 3126,
      "keeper": 3127,
      "Ġchase": 3128,
      "Ġintellig": 3129,
      "reen": 3130,
      "Ġberries": 3131,
      "ado": 3132,
      "Ġunus": 3133,
      "Ġskin": 3134,
      "Ġenjoying": 3135,
      "redient": 3136,
      "atch": 3137,
      "Ġfavour": 3138,
      "Ġpost": 3139,
      "Ġmighty": 3140,
      "iew": 3141,
      "Ġregular": 3142,
      "Ġproduct": 3143,
      "Ġlanguage": 3144,
      "Ġwhale": 3145,
      "Ġins": 3146,
      "Ġancient": 3147,
      "bin": 3148,
      "Ġpump": 3149,
      "Ġpal": 3150,
      "Here": 3151,
      "arry": 3152,
      "Ġlab": 3153,
      "Ġshake": 3154,
      "Ġgrace": 3155,
      "Ġprint": 3156,
      "Ġnormal": 3157,
      "Ġhurts": 3158,
      "Ġview": 3159,
      "ipper": 3160,
      "Ġunusual": 3161,
      "Ġpointing": 3162,
      "Ġcheerful": 3163,
      "Ġtravel": 3164,
      "Ġbreakfast": 3165,
      "Ġgrown": 3166,
      "Ġhero": 3167,
      "Ġmelt": 3168,
      "Ġlouder": 3169,
      "Ġbelonged": 3170,
      "Ġharder": 3171,
      "Ġoffice": 3172,
      "wards": 3173,
      "Ġdizzy": 3174,
      "Ġing": 3175,
      "Ġthose": 3176,
      "erry": 3177,
      "Ġbirdie": 3178,
      "Ġresp": 3179,
      "Ġmodern": 3180,
      "Ġinclude": 3181,
      "Ġmill": 3182,
      "Ġfavourite": 3183,
      "uggled": 3184,
      "Ġindepend": 3185,
      "Ġcro": 3186,
      "Ġtele": 3187,
      "Ġloudly": 3188,
      "Ġfool": 3189,
      "ants": 3190,
      "Ġescape": 3191,
      "Ġtrunk": 3192,
      "lete": 3193,
      "Ġspun": 3194,
      "Ġvaluable": 3195,
      "illiant": 3196,
      "Ġimpressed": 3197,
      "emo": 3198,
      "atter": 3199,
      "Ġwrapped": 3200,
      "Ġturtle": 3201,
      "Ġterri": 3202,
      "Ġjack": 3203,
      "Ġingredient": 3204,
      "Ġsword": 3205,
      "Ġbrilliant": 3206,
      "Ġboxes": 3207,
      "ĠMike": 3208,
      "oot": 3209,
      "Ġtomato": 3210,
      "Ġears": 3211,
      "Ġtrucks": 3212,
      "Ġsupport": 3213,
      "eorge": 3214,
      "ems": 3215,
      "Ġpil": 3216,
      "Ġunl": 3217,
      "Ġsmoke": 3218,
      "ĠMy": 3219,
      "ĠNemo": 3220,
      "Ġhappiness": 3221,
      "Ġbossy": 3222,
      "Ġuseful": 3223,
      "Ġharm": 3224,
      "Ġcircles": 3225,
      "Ġoriginal": 3226,
      "Ġtoast": 3227,
      "Ġwalls": 3228,
      "Ġinvited": 3229,
      "Ġsolve": 3230,
      "Ġsafely": 3231,
      "Ġgoat": 3232,
      "Ġcabin": 3233,
      "Ġhous": 3234,
      "Ġdead": 3235,
      "Ġpattern": 3236,
      "Ġpractice": 3237,
      "Ġwhisp": 3238,
      "Ġproudly": 3239,
      "Ġscare": 3240,
      "Ġdreams": 3241,
      "Ġbuilt": 3242,
      "Ġdreamed": 3243,
      "kn": 3244,
      "ĠGrandpa": 3245,
      "cu": 3246,
      "Ġhats": 3247,
      "Ġsmaller": 3248,
      "Ġflash": 3249,
      "ips": 3250,
      "bborn": 3251,
      "Ġegg": 3252,
      "Ġrough": 3253,
      "Ġbloom": 3254,
      "Ġvalue": 3255,
      "Ġstubborn": 3256,
      "Ġbrothers": 3257,
      "Ġwake": 3258,
      "Ġlaughs": 3259,
      "Ġfrightened": 3260,
      "Ġsy": 3261,
      "Give": 3262,
      "Ġswan": 3263,
      "Ġslipped": 3264,
      "ĠDave": 3265,
      "Ġcomb": 3266,
      "ache": 3267,
      "ution": 3268,
      "Ġabove": 3269,
      "ĠSoph": 3270,
      "Ġclay": 3271,
      "Ġrece": 3272,
      "laimed": 3273,
      "Ġfier": 3274,
      "--": 3275,
      "Ġpee": 3276,
      "Ġrose": 3277,
      "Ġsub": 3278,
      "Ġmixed": 3279,
      "Ġbuttons": 3280,
      "Ġthemselves": 3281,
      "Ġsecond": 3282,
      "Ġfridge": 3283,
      "Ġlights": 3284,
      "Ġsuggested": 3285,
      "Ġson": 3286,
      "edient": 3287,
      "Lila": 3288,
      "plain": 3289,
      "het": 3290,
      "its": 3291,
      "Ġfierce": 3292,
      "Ġshark": 3293,
      "Ġfoolish": 3294,
      "Ġstud": 3295,
      "Ġchanged": 3296,
      "Ġhouses": 3297,
      "Ġcam": 3298,
      "Ġcrayon": 3299,
      "ext": 3300,
      "ction": 3301,
      "Ġearly": 3302,
      "Ġdelicate": 3303,
      "Ġindependent": 3304,
      "Ġkinds": 3305,
      "Ġexclaimed": 3306,
      "Ġingredients": 3307,
      "Ġprep": 3308,
      "ĠDucky": 3309,
      "Ġrat": 3310,
      "Ġicy": 3311,
      "Ġwagon": 3312,
      "Ġfalls": 3313,
      "Ġknows": 3314,
      "Ġnosy": 3315,
      "Ġnicely": 3316,
      "known": 3317,
      "inary": 3318,
      "ĠPe": 3319,
      "Ġcudd": 3320,
      "Ġobedient": 3321,
      "Ġcountry": 3322,
      "Ġbags": 3323,
      "Ġmu": 3324,
      "Ġnature": 3325,
      "oppy": 3326,
      "Ġgrandpa": 3327,
      "Ġnotice": 3328,
      "Ġcher": 3329,
      "ense": 3330,
      "Ġstove": 3331,
      "Ġshowing": 3332,
      "Ġcamp": 3333,
      "ĠLola": 3334,
      "Ġexplored": 3335,
      "Ġpoured": 3336,
      "Ġlocked": 3337,
      "Ġfrag": 3338,
      "Ġdough": 3339,
      "Ġmis": 3340,
      "ics": 3341,
      "Ġshells": 3342,
      "dge": 3343,
      "gn": 3344,
      "Ġwiped": 3345,
      "Ġencou": 3346,
      "rell": 3347,
      "Ġaunt": 3348,
      "Ġlean": 3349,
      "Ġexcitedly": 3350,
      "Ġquestion": 3351,
      "Ġclock": 3352,
      "Ġcop": 3353,
      "ĠYour": 3354,
      "Ġmagn": 3355,
      "ĠSh": 3356,
      "Ġcrack": 3357,
      "Ġsounded": 3358,
      "chn": 3359,
      "Ġreliable": 3360,
      "ĠSn": 3361,
      "Ġprocess": 3362,
      "Ġsquare": 3363,
      "anut": 3364,
      "ĠGeorge": 3365,
      "Ġ=": 3366,
      "Ġfinding": 3367,
      "Ġstretch": 3368,
      "Ġcomplete": 3369,
      "Ġsurf": 3370,
      "Ġyet": 3371,
      "aul": 3372,
      "Ġpotato": 3373,
      "apping": 3374,
      "Ġwitch": 3375,
      "Ġer": 3376,
      "Ġbushes": 3377,
      "Ġfragile": 3378,
      "Ġreco": 3379,
      "Ġstumbled": 3380,
      "ĠBill": 3381,
      "Ġgrand": 3382,
      "Ġthoughtful": 3383,
      "ipe": 3384,
      "Ġfountain": 3385,
      "!\".": 3386,
      "Ġcons": 3387,
      "Ġbrightly": 3388,
      "Ġallowed": 3389,
      "Ġhalf": 3390,
      "rod": 3391,
      "Ġheal": 3392,
      "Ġserious": 3393,
      "Ġsystem": 3394,
      "Ġcleaning": 3395,
      "Ġrode": 3396,
      "Ġflex": 3397,
      "Ġraced": 3398,
      "Ġspoiled": 3399,
      "Ġplayful": 3400,
      "Ġsuper": 3401,
      "ments": 3402,
      "Ġfingers": 3403,
      "Ġdependable": 3404,
      "Ġspinning": 3405,
      "Ġsauce": 3406,
      "ron": 3407,
      "under": 3408,
      "Ġcustomer": 3409,
      "Ġgrap": 3410,
      "ĠOnce": 3411,
      "ility": 3412,
      "corn": 3413,
      "ormous": 3414,
      "Ġinclud": 3415,
      "Ġstronger": 3416,
      "Ġdelighted": 3417,
      "Ġhelm": 3418,
      "Ġleaving": 3419,
      "Ġadvice": 3420,
      "gu": 3421,
      "ib": 3422,
      "Ġenormous": 3423,
      "Ġbitter": 3424,
      "ruct": 3425,
      "Ġpainted": 3426,
      "Ġfresh": 3427,
      "Ġparrot": 3428,
      "Ġshone": 3429,
      "Ġtwig": 3430,
      "Ġchir": 3431,
      "Ġtrack": 3432,
      "Ġroof": 3433,
      "Ġreminded": 3434,
      "Ġunknown": 3435,
      "Ġadmired": 3436,
      "Ġkicked": 3437,
      "Ġmetal": 3438,
      "Ġchose": 3439,
      "Ġjoined": 3440,
      "Ġthinking": 3441,
      "Ġcounted": 3442,
      "Ġjam": 3443,
      "Ġ4": 3444,
      "Ġspeed": 3445,
      "Gener": 3446,
      "Ġtummy": 3447,
      "Ġbull": 3448,
      "time": 3449,
      "ĠWhenever": 3450,
      "put": 3451,
      "mbrell": 3452,
      "Ġprovide": 3453,
      "Ġdriving": 3454,
      "Ġtor": 3455,
      "Ġhammer": 3456,
      "Ġacorn": 3457,
      "Ġumbrell": 3458,
      "Ġsalad": 3459,
      "Ġcone": 3460,
      "Ġterrible": 3461,
      "Ġsunfl": 3462,
      "Ġsteal": 3463,
      "Ġdust": 3464,
      "eeze": 3465,
      "Ġwhispered": 3466,
      "Ġbees": 3467,
      "Ġjolly": 3468,
      "Ġuniver": 3469,
      "Ġtunn": 3470,
      "Ġphot": 3471,
      "Ġbeak": 3472,
      "Generate": 3473,
      "illa": 3474,
      "Ġbrace": 3475,
      "Ġsniff": 3476,
      "Ġloll": 3477,
      "Ġhanded": 3478,
      "Ġdoesn": 3479,
      "Ġmeal": 3480,
      "urch": 3481,
      "ipop": 3482,
      "Ġpopcorn": 3483,
      "ye": 3484,
      "Ġboats": 3485,
      "If": 3486,
      "Ġrubb": 3487,
      "Ġdeliver": 3488,
      "Ġrequ": 3489,
      "Ġlollipop": 3490,
      "Ġpeanut": 3491,
      "Ġpow": 3492,
      "Ġhairy": 3493,
      "Ġdiam": 3494,
      "aghet": 3495,
      "Ġvide": 3496,
      "Ġclum": 3497,
      "aghetti": 3498,
      "Ġwrap": 3499,
      "Ġsleeping": 3500,
      "ĠBa": 3501,
      "Ġguard": 3502,
      "robe": 3503,
      "Ġforth": 3504,
      "Ġaut": 3505,
      "Ġtank": 3506,
      "Ġpumpkin": 3507,
      "Ġequ": 3508,
      "Ġsna": 3509,
      "Ġsink": 3510,
      "velop": 3511,
      "Ġhuman": 3512,
      "Ġcheap": 3513,
      "Ġsearching": 3514,
      "Ġpicking": 3515,
      "Ġdove": 3516,
      "Ġbounce": 3517,
      "upid": 3518,
      "Ġcamera": 3519,
      "Ġmissing": 3520,
      "Ġdolphin": 3521,
      "Ġbase": 3522,
      "Ġlibrary": 3523,
      "Ġcompass": 3524,
      "Ġbump": 3525,
      "Ġholds": 3526,
      "Ġsteps": 3527,
      "Ġexplain": 3528,
      "ural": 3529,
      "ĠToby": 3530,
      "Ġwealthy": 3531,
      "Ġbeauty": 3532,
      "Ġstamp": 3533,
      "Ġrecogn": 3534,
      "ĠSm": 3535,
      "ĠBear": 3536,
      "Ġdiamond": 3537,
      "Ġhay": 3538,
      "Ġvi": 3539,
      "Ġgasped": 3540,
      "Ġtriang": 3541,
      "ebra": 3542,
      "Ġow": 3543,
      "Ġspaghetti": 3544,
      "ci": 3545,
      "Ġzip": 3546,
      "Ġtelling": 3547,
      "Ġclumsy": 3548,
      "Ġstage": 3549,
      "Ġseeds": 3550,
      "ilty": 3551,
      "Ġthunder": 3552,
      "Ġmask": 3553,
      "Ġdiscover": 3554,
      "rite": 3555,
      "Ġguilty": 3556,
      "Ġmarble": 3557,
      "Ġfriendship": 3558,
      "Ġbarber": 3559,
      "Ġyarn": 3560,
      "ugged": 3561,
      "Ġload": 3562,
      "Ġresc": 3563,
      "cod": 3564,
      "icle": 3565,
      "Ġdestro": 3566,
      "Ġreward": 3567,
      "ief": 3568,
      "Ġrestaur": 3569,
      "Ġstairs": 3570,
      "Ġflexible": 3571,
      "Ġreading": 3572,
      "Ġhandle": 3573,
      "ative": 3574,
      "Ġrushed": 3575,
      "Ġearth": 3576,
      "Ġgoose": 3577,
      "Ġtruth": 3578,
      "istent": 3579,
      "Ġpatch": 3580,
      "gth": 3581,
      "Ġagree": 3582,
      "See": 3583,
      "Ġstupid": 3584,
      "Go": 3585,
      "ĠPaul": 3586,
      "Ġpirate": 3587,
      "Ġdesk": 3588,
      "ĠTr": 3589,
      "Ġcarrying": 3590,
      "Ġarrow": 3591,
      "Ġattract": 3592,
      "Ġfu": 3593,
      "Ġled": 3594,
      "ĠRed": 3595,
      "Ġenth": 3596,
      "Ġimpressive": 3597,
      "Ġumbrella": 3598,
      "Ġwire": 3599,
      "Ġjacket": 3600,
      "ĠKim": 3601,
      "Ġknown": 3602,
      "Ġshort": 3603,
      "Ġdull": 3604,
      "Ġscale": 3605,
      "Ġknock": 3606,
      "Ġmole": 3607,
      "ĠAlex": 3608,
      "eezed": 3609,
      "lic": 3610,
      "aches": 3611,
      "Ġzebra": 3612,
      "ges": 3613,
      "Ġgraceful": 3614,
      "Ġending": 3615,
      "Ġspring": 3616,
      "Ġangel": 3617,
      "ĠRe": 3618,
      "Ġsuit": 3619,
      "Ġdreaming": 3620,
      "ĠPolly": 3621,
      "Ġprize": 3622,
      "Ġnames": 3623,
      "Ġwashed": 3624,
      "Ġenthus": 3625,
      "Ġcrazy": 3626,
      "Ġtied": 3627,
      "irsty": 3628,
      "Ġmodel": 3629,
      "Ġanx": 3630,
      "ĠâĢĵ": 3631,
      "Ġcooking": 3632,
      "Ġgrowing": 3633,
      "Ġbeet": 3634,
      "Ġshiver": 3635,
      "Ġcompassion": 3636,
      "Ġexamp": 3637,
      "Ġsparkled": 3638,
      "arsh": 3639,
      "Ġbiggest": 3640,
      "lass": 3641,
      "Ġimprove": 3642,
      "Ġimagined": 3643,
      "oomy": 3644,
      "Ġsummer": 3645,
      "Ġcareless": 3646,
      "cribe": 3647,
      "Ġahead": 3648,
      "awn": 3649,
      "Ġhoop": 3650,
      "ĠNext": 3651,
      "loo": 3652,
      "Ġtechn": 3653,
      "anda": 3654,
      "Ġplaced": 3655,
      "Ġsett": 3656,
      "Ġbi": 3657,
      "par": 3658,
      "Ġpige": 3659,
      "ĠSophie": 3660,
      "Ġopens": 3661,
      "Ġcere": 3662,
      "Ġsudden": 3663,
      "Ġstranger": 3664,
      "Ġsne": 3665,
      "Ġrubbed": 3666,
      "Ġpebble": 3667,
      "Ġcrocod": 3668,
      "ĠAndy": 3669,
      "Ġpenny": 3670,
      "Ġposs": 3671,
      "Ġcryst": 3672,
      "Ġwing": 3673,
      "Des": 3674,
      "Ġfurther": 3675,
      "ĠPat": 3676,
      "Ġcourage": 3677,
      "Ġsend": 3678,
      "ives": 3679,
      "Ġrules": 3680,
      "Ġtax": 3681,
      "ffe": 3682,
      "Ġmel": 3683,
      "Ġmailbox": 3684,
      "Ġflashlight": 3685,
      "Ġwheels": 3686,
      "Ġspilled": 3687,
      "bled": 3688,
      "Ġwindows": 3689,
      "ues": 3690,
      "Ġsadly": 3691,
      "Ġsize": 3692,
      "Ġbutterflies": 3693,
      "ĠJoey": 3694,
      "Ġrug": 3695,
      "Ġexperience": 3696,
      "Ġseas": 3697,
      "ceed": 3698,
      "Ġnote": 3699,
      "Ġtorn": 3700,
      "Ġthirsty": 3701,
      "comfort": 3702,
      "Ġfork": 3703,
      "Ġolder": 3704,
      "ĊĠĠĠ": 3705,
      "Ġeither": 3706,
      "Ġinvest": 3707,
      "Ġrestaurant": 3708,
      "Ġgum": 3709,
      "fa": 3710,
      "Ġshocked": 3711,
      "Ġbracelet": 3712,
      "Ġdrop": 3713,
      "Ġflour": 3714,
      "Ġsorts": 3715,
      "Ġhumble": 3716,
      "ĠY": 3717,
      "aff": 3718,
      "Ġpengu": 3719,
      "Ġvol": 3720,
      "comfortable": 3721,
      "Ġpeeked": 3722,
      "Ġbadly": 3723,
      "Ġuncomfortable": 3724,
      "Ġtur": 3725,
      "gen": 3726,
      "Ġwarned": 3727,
      "ĠRo": 3728,
      "Ġcelebrate": 3729,
      "Ġscatter": 3730,
      "Ġpale": 3731,
      "Ġbent": 3732,
      "Ġperm": 3733,
      "Ġliz": 3734,
      "Ġspoke": 3735,
      "They": 3736,
      "Ġstatue": 3737,
      "play": 3738,
      "ffee": 3739,
      "Ġcase": 3740,
      "te": 3741,
      "Ġanxious": 3742,
      "Ġslides": 3743,
      "nce": 3744,
      "Ġnail": 3745,
      "Ġstack": 3746,
      "iest": 3747,
      "Ġstation": 3748,
      "Ġtowers": 3749,
      "Ġdestroy": 3750,
      "line": 3751,
      "Ġflute": 3752,
      "Create": 3753,
      "Ġten": 3754,
      "host": 3755,
      "res": 3756,
      "Ġshut": 3757,
      "Ġsunflower": 3758,
      "Ġcounting": 3759,
      "Ġpiano": 3760,
      "Ġoffer": 3761,
      "Ġscoot": 3762,
      "Ġintelligent": 3763,
      "Ġfactor": 3764,
      "Ġtunnel": 3765,
      "Ġstops": 3766,
      "Ġbeetle": 3767,
      "Ġpup": 3768,
      "ĠCharl": 3769,
      "Ġevent": 3770,
      "Ġcompany": 3771,
      "arian": 3772,
      "aid": 3773,
      "Ġharmless": 3774,
      "Ġrefused": 3775,
      "oe": 3776,
      "ĠHere": 3777,
      "Ġcomm": 3778,
      "Ġseem": 3779,
      "Ġpersistent": 3780,
      "Ġcartoon": 3781,
      "Ġnurse": 3782,
      "vers": 3783,
      "Ġcupboard": 3784,
      "Ġcreatures": 3785,
      "iches": 3786,
      "Ġpepper": 3787,
      "ories": 3788,
      "Ġbicy": 3789,
      "Ġdeaf": 3790,
      "Ġcrocodile": 3791,
      "Ġpackage": 3792,
      "Ġcharming": 3793,
      "Ġtrick": 3794,
      "Ġgifted": 3795,
      "Ġradio": 3796,
      "Ġpun": 3797,
      "Ġmessage": 3798,
      "Ġspeak": 3799,
      "Ġcrane": 3800,
      "cut": 3801,
      "Ġsepar": 3802,
      "Ġordinary": 3803,
      "Ġclub": 3804,
      "Ġsandwiches": 3805,
      "Ġmush": 3806,
      "Ġghost": 3807,
      "Ġraven": 3808,
      "Ġcereal": 3809,
      "oli": 3810,
      "Ġyawn": 3811,
      "Ex": 3812,
      "Yay": 3813,
      "Ġalert": 3814,
      "Ġresist": 3815,
      "Ġcurt": 3816,
      "Ġobser": 3817,
      "Ġmushroom": 3818,
      "Ġlively": 3819,
      "..": 3820,
      "Ġchasing": 3821,
      "cream": 3822,
      "ctop": 3823,
      "Ġneat": 3824,
      "Ġquar": 3825,
      "ctopus": 3826,
      "Ġscreen": 3827,
      "Ġcurtain": 3828,
      "astic": 3829,
      "Ġanywhere": 3830,
      "Ġblueber": 3831,
      "Ġslid": 3832,
      "Ġuncle": 3833,
      "Ġhung": 3834,
      "Ġsofa": 3835,
      "Ġsnuggled": 3836,
      "Ġswe": 3837,
      "Re": 3838,
      "Ġcompetitive": 3839,
      "Ġgloomy": 3840,
      "ĠLook": 3841,
      "Ġenvel": 3842,
      "Ġenvelope": 3843,
      "ĠGive": 3844,
      "omm": 3845,
      "enry": 3846,
      "Ġpretending": 3847,
      "Ġchance": 3848,
      "Ġjumps": 3849,
      "Ġpony": 3850,
      "Ġtrans": 3851,
      "Ġcrawl": 3852,
      "Ġcarp": 3853,
      "Ġcats": 3854,
      "Ġbri": 3855,
      "Ġcricket": 3856,
      "Ġcrystal": 3857,
      "ĠBrownie": 3858,
      "Ġsince": 3859,
      "stic": 3860,
      "Ġlizard": 3861,
      "ailable": 3862,
      "round": 3863,
      "Ġparade": 3864,
      "Max": 3865,
      "Ġitself": 3866,
      "Ġletters": 3867,
      "Ow": 3868,
      "Ġhunter": 3869,
      "erc": 3870,
      "Ġoctopus": 3871,
      "Ġactiv": 3872,
      "heart": 3873,
      "erable": 3874,
      "Ġtriangle": 3875,
      "Ġpoints": 3876,
      "Ġdrawer": 3877,
      "urb": 3878,
      "ences": 3879,
      "iven": 3880,
      "ĠTweetie": 3881,
      "Ġturkey": 3882,
      "Ġhelmet": 3883,
      "Ġcoffee": 3884,
      "Ġsucceed": 3885,
      "Ġtrap": 3886,
      "orant": 3887,
      "chie": 3888,
      "Ġur": 3889,
      "coa": 3890,
      "Ġhurry": 3891,
      "gust": 3892,
      "Ġsoldier": 3893,
      "Ġmiserable": 3894,
      "Ġpasta": 3895,
      "Ġpoint": 3896,
      "Ġneedle": 3897,
      "Ġavailable": 3898,
      "Ġhealth": 3899,
      "ĠBefore": 3900,
      "Ġtwirled": 3901,
      "ology": 3902,
      "ubby": 3903,
      "Ġshaking": 3904,
      "),": 3905,
      "night": 3906,
      "orable": 3907,
      "ĠAre": 3908,
      "Ġspir": 3909,
      "Ġdisgust": 3910,
      "rich": 3911,
      "Ġpracticed": 3912,
      "ring": 3913,
      "Ġcollar": 3914,
      "une": 3915,
      "Ġdire": 3916,
      "Ġappro": 3917,
      "Ġgoal": 3918,
      "Ġdug": 3919,
      "Ġthief": 3920,
      "Tommy": 3921,
      "Ġtire": 3922,
      "hood": 3923,
      "Ġseal": 3924,
      "Ġattractive": 3925,
      "Ġmeas": 3926,
      "Ġstruct": 3927,
      "Ġgor": 3928,
      "ccoli": 3929,
      "In": 3930,
      "ĠJerry": 3931,
      "ĠRu": 3932,
      "Ġgem": 3933,
      "Ġcooked": 3934,
      "ĠWill": 3935,
      "Ġcards": 3936,
      "Ġjud": 3937,
      "useum": 3938,
      "Ġweather": 3939,
      "Ġbandage": 3940,
      "Ġplayer": 3941,
      "Ġgir": 3942,
      "Ġignorant": 3943,
      "Ġhelpless": 3944,
      "olin": 3945,
      "Ġtooth": 3946,
      "Ġmuff": 3947,
      "nam": 3948,
      "Ġstarts": 3949,
      "tter": 3950,
      "noon": 3951,
      "Ġdistant": 3952,
      "etwork": 3953,
      "Ġnuts": 3954,
      "Ġtrump": 3955,
      "Ġjet": 3956,
      "ĠOr": 3957,
      "Ġfan": 3958,
      "Ġcocoa": 3959,
      "Ġbounced": 3960,
      "Ġcube": 3961,
      "Ġafternoon": 3962,
      "Ġcompassionate": 3963,
      "Ġshine": 3964,
      "Ġbrighter": 3965,
      "Timmy": 3966,
      "Ġnobody": 3967,
      "Ġtrash": 3968,
      "ĠGrace": 3969,
      "Ġpigeon": 3970,
      "Ġwishes": 3971,
      "tain": 3972,
      "Ġthread": 3973,
      "ĠBet": 3974,
      "Ġfireman": 3975,
      "Ġsalt": 3976,
      "Ġdisplay": 3977,
      "Ġblow": 3978,
      "Ġintrod": 3979,
      "Ġspell": 3980,
      "gie": 3981,
      "aly": 3982,
      "Ġmeat": 3983,
      "Ġdess": 3984,
      "ium": 3985,
      "Ġdecorate": 3986,
      "Ġinter": 3987,
      "Ġjeep": 3988,
      "Ġimpat": 3989,
      "Ġstarting": 3990,
      "year": 3991,
      "Ġcreated": 3992,
      "Ġleash": 3993,
      "Ġdisturb": 3994,
      "Ġtap": 3995,
      "Ġpage": 3996,
      "Ġchubby": 3997,
      "Ġstretched": 3998,
      "aked": 3999,
      "Ġfort": 4000,
      "Ġpants": 4001,
      "Ġmug": 4002,
      "Ġduring": 4003,
      "Ġsort": 4004,
      "ah": 4005,
      "Ġbeep": 4006,
      "Ġstirred": 4007,
      "Ġplanet": 4008,
      "Ġmain": 4009,
      "Ġotter": 4010,
      "Ġlistening": 4011,
      "Ġimpatient": 4012,
      "Ġpoem": 4013,
      "ĠAnnie": 4014,
      "Ġpress": 4015,
      "Ġtroubled": 4016,
      "ational": 4017,
      "Ġdem": 4018,
      "Ġanyway": 4019,
      "arac": 4020,
      "ĠInst": 4021,
      "aroo": 4022,
      "Ġbicycle": 4023,
      "Ġaer": 4024,
      "Ġstickers": 4025,
      "Ġenthusia": 4026,
      "iling": 4027,
      "Ġshoe": 4028,
      "Ġquite": 4029,
      "Ġrice": 4030,
      "angaroo": 4031,
      "Ġattic": 4032,
      "Ġcandle": 4033,
      "Ġrespectful": 4034,
      "Ġvine": 4035,
      "opter": 4036,
      "Ġrestless": 4037,
      "Ġjug": 4038,
      "ising": 4039,
      "ats": 4040,
      "thy": 4041,
      "Ġform": 4042,
      "Ġcarpet": 4043,
      "Ġenthusiastic": 4044,
      "ĠSnow": 4045,
      "Ġdisgusting": 4046,
      "Ġmen": 4047,
      "Ġappre": 4048,
      "Ġpressed": 4049,
      "Ġbroccoli": 4050,
      "Ġtrumpet": 4051,
      "Ġallig": 4052,
      "Ġfootball": 4053,
      "Ġadorable": 4054,
      "Ġexample": 4055,
      "aracter": 4056,
      "Ġost": 4057,
      "Ġ10": 4058,
      "Ġscrew": 4059,
      "cast": 4060,
      "ĠMag": 4061,
      "Ġautom": 4062,
      "Ġsomewhere": 4063,
      "Ġtray": 4064,
      "Ġwaff": 4065,
      "Ġskip": 4066,
      "ĠWhere": 4067,
      "Ġfearful": 4068,
      "Ġhipp": 4069,
      "Ġstructure": 4070,
      "Ġenvious": 4071,
      "ube": 4072,
      "inking": 4073,
      "Ġoil": 4074,
      "icopter": 4075,
      "Ġrepair": 4076,
      "Ġnowhere": 4077,
      "Ġhelicopter": 4078,
      "opl": 4079,
      "ĠMill": 4080,
      "Ġadmire": 4081,
      "Ġpor": 4082,
      "Ġappreci": 4083,
      "Ġyogurt": 4084,
      "ĠHenry": 4085,
      "Ġants": 4086,
      "Ġleop": 4087,
      "ĠCo": 4088,
      "Ġharsh": 4089,
      "Ġfilthy": 4090,
      "Ġcor": 4091,
      "ses": 4092,
      "Ġpipe": 4093,
      "Ġbur": 4094,
      "Ġsoar": 4095,
      "Ġkangaroo": 4096,
      "Ġsweetheart": 4097,
      "ipping": 4098,
      "Ġbelt": 4099,
      "Ġhook": 4100,
      "ĠWould": 4101,
      "Ġinse": 4102,
      "Ġmonkeys": 4103,
      "ĠCharlie": 4104,
      "Ġbatht": 4105,
      "Ġpaid": 4106,
      "Ġstrugg": 4107,
      "Ġribb": 4108,
      "Ġnetwork": 4109,
      "Ġbathtub": 4110,
      "ĠQ": 4111,
      "Ġrub": 4112,
      "Ġsle": 4113,
      "ĠLee": 4114,
      "sity": 4115,
      "Ġalive": 4116,
      "ĠPap": 4117,
      "Ġelect": 4118,
      "Ġwinter": 4119,
      "enny": 4120,
      "Ġscooter": 4121,
      "Ġcows": 4122,
      "Ġbarking": 4123,
      "imi": 4124,
      "Ġmuseum": 4125,
      "ĠEverything": 4126,
      "Ġbackpack": 4127,
      "Ġwheat": 4128,
      "Ġamb": 4129,
      "Ġgiggle": 4130,
      "Ġhappier": 4131,
      "ĠLilly": 4132,
      "Ġchain": 4133,
      "Ġunpack": 4134,
      "Ġfilm": 4135,
      "Ġshouts": 4136,
      "Ġvideo": 4137,
      "ĠMaria": 4138,
      "izes": 4139,
      "Ġvar": 4140,
      "ĠBunny": 4141,
      "chan": 4142,
      "cycle": 4143,
      "Ġmagnet": 4144,
      "stairs": 4145,
      "eer": 4146,
      "ases": 4147,
      "Ġsandbox": 4148,
      "Ġcush": 4149,
      "Ġbasketball": 4150,
      "Ġdiscu": 4151,
      "Ġmama": 4152,
      "Ġfinds": 4153,
      "Ġshade": 4154,
      "Ġdishes": 4155,
      "Ġexerc": 4156,
      "Ġaeropl": 4157,
      "ĠHarry": 4158,
      "Ġlid": 4159,
      "Ġfle": 4160,
      "Ġdessert": 4161,
      "Ġol": 4162,
      "Ġcontain": 4163,
      "place": 4164,
      "Ġevening": 4165,
      "ĠMay": 4166,
      "Ġshadow": 4167,
      "Ġsquash": 4168,
      "Ġspirit": 4169,
      "Ġorganize": 4170,
      "Ġfirework": 4171,
      "ĠBaby": 4172,
      "Ġgro": 4173,
      "Ġsplit": 4174,
      "Ġended": 4175,
      "Ġhedge": 4176,
      "Ġleopard": 4177,
      "Ġvolc": 4178,
      "Ġhall": 4179,
      "Ġsheet": 4180,
      "Ġviolin": 4181,
      "ĠSmith": 4182,
      "iskers": 4183,
      "Ġstared": 4184,
      "Ġmechan": 4185,
      "ĠBuddy": 4186,
      "Ġfields": 4187,
      "Ġrescue": 4188,
      "Ġlightning": 4189,
      "Ġforgave": 4190,
      "Ġpaws": 4191,
      "Ġpilot": 4192,
      "Ġholes": 4193,
      "Ġtripped": 4194,
      "Ġcomet": 4195,
      "Ġmodest": 4196,
      "ĠRos": 4197,
      "Ġbananas": 4198,
      "Ġsoil": 4199,
      "Ġalligator": 4200,
      "Ġtext": 4201,
      "Ġvisited": 4202,
      "Ġostrich": 4203,
      "ple": 4204,
      "Ġgorilla": 4205,
      "Ġlives": 4206,
      "ommend": 4207,
      "Ġstren": 4208,
      "Ġcact": 4209,
      "Ġbusiness": 4210,
      "ĠKate": 4211,
      "Ġmelon": 4212,
      "Ġtrop": 4213,
      "gor": 4214,
      "Ġmath": 4215,
      "Ġdevelop": 4216,
      "Ġrolling": 4217,
      "ĠWhiskers": 4218,
      "Ġbin": 4219,
      "Ġcharacter": 4220,
      "Ġmule": 4221,
      "ential": 4222,
      "Ġwriting": 4223,
      "Ġcent": 4224,
      "Ġpurse": 4225,
      "Ġhippo": 4226,
      "ĠMillie": 4227,
      "Ġpushing": 4228,
      "ĠJess": 4229,
      "ĠSandy": 4230,
      "Ġbears": 4231,
      "Ġhist": 4232,
      "ĠTed": 4233,
      "Ġriding": 4234,
      "Ġavoc": 4235,
      "ucked": 4236,
      "Ġraft": 4237,
      "Ġjellyfish": 4238,
      "Ġloc": 4239,
      "iction": 4240,
      "edy": 4241,
      "Ġvolcano": 4242,
      "ites": 4243,
      "ĠMimi": 4244,
      "ebook": 4245,
      "Ġprevent": 4246,
      "Ġbuzz": 4247,
      "Ġnovel": 4248,
      "Ġroared": 4249,
      "ĠPapa": 4250,
      "ern": 4251,
      "Ġitems": 4252,
      "Ġbikes": 4253,
      "Ġswinging": 4254,
      "Ġbaking": 4255,
      "Ġluck": 4256,
      "Ġped": 4257,
      "Ġrod": 4258,
      "lter": 4259,
      "Ġgrabs": 4260,
      "mbol": 4261,
      "Bye": 4262,
      "Ġlend": 4263,
      "icer": 4264,
      "Ġpanda": 4265,
      "Ġmild": 4266,
      "Ġstrawberry": 4267,
      "ĠJames": 4268,
      "Ġsilver": 4269,
      "Ġnotebook": 4270,
      "ĠIs": 4271,
      "Ġbehave": 4272,
      "Ġtrains": 4273,
      "Ġboots": 4274,
      "Ġhaircut": 4275,
      "reeze": 4276,
      "Ġbill": 4277,
      "Ġcactus": 4278,
      "Ġbul": 4279,
      "Ġchalk": 4280,
      "ĠAb": 4281,
      "Ġsymbol": 4282,
      "Ġknot": 4283,
      "Ġfalling": 4284,
      "Ġshelter": 4285,
      "ĠĊ": 4286,
      "ĠBun": 4287,
      "undry": 4288,
      "Ġsteak": 4289,
      "Ġscold": 4290,
      "Ġloop": 4291,
      "Ġkne": 4292,
      "Ġjokes": 4293,
      "Ġporch": 4294,
      "aled": 4295,
      "ĠDanny": 4296,
      "Ġputting": 4297,
      "Ġpulls": 4298,
      "Ġwallet": 4299,
      "ney": 4300,
      "Ġrecommend": 4301,
      "Ġpad": 4302,
      "Ġairport": 4303,
      "Ġswitch": 4304,
      "Ġpalace": 4305,
      "Ġlear": 4306,
      "ived": 4307,
      "Ġlearnt": 4308,
      "Ġlaundry": 4309,
      "Ġrag": 4310,
      "Ġsweater": 4311,
      "Ġpapers": 4312,
      "Ġclimbing": 4313,
      "uture": 4314,
      "Ġstrength": 4315,
      "Ġfrowned": 4316,
      "\",": 4317,
      "iture": 4318,
      "Ġbarrel": 4319,
      "Ġoper": 4320,
      "Ġtaxi": 4321,
      "Ġunlock": 4322,
      "Ġframe": 4323,
      "Ġinform": 4324,
      "Describe": 4325,
      "Ġsock": 4326,
      "Ġhadn": 4327,
      "Ġlions": 4328,
      "Ġneighbour": 4329,
      "house": 4330,
      "eath": 4331,
      "Ġpole": 4332,
      "Ġglow": 4333,
      "Ġshopkeeper": 4334,
      "ison": 4335,
      "Ġelev": 4336,
      "Ġdrawings": 4337,
      "Ġsport": 4338,
      "ccer": 4339,
      "Ġsunset": 4340,
      "Ġpossible": 4341,
      "Ġhive": 4342,
      "Ġcell": 4343,
      "Ġsaus": 4344,
      "Ġsurround": 4345,
      "ĠKat": 4346,
      "Ġjournal": 4347,
      "Ġreind": 4348,
      "happy": 4349,
      "Ġambul": 4350,
      "elery": 4351,
      "ĠMiss": 4352,
      "urniture": 4353,
      "Ġbattery": 4354,
      "Ġtricks": 4355,
      "ito": 4356,
      "Ġonion": 4357,
      "Ġarea": 4358,
      "Ġpenguin": 4359,
      "ĠHowever": 4360,
      "Ġbelongs": 4361,
      "Ġmeeting": 4362,
      "Ġpair": 4363,
      "ooped": 4364,
      "Ġunderstanding": 4365,
      "Ġshield": 4366,
      "Ġsprink": 4367,
      "Ġjudge": 4368,
      "Ġsticker": 4369,
      "Ġachie": 4370,
      "Ġink": 4371,
      "Ġideas": 4372,
      "Ġtube": 4373,
      "ically": 4374,
      "meric": 4375,
      "Ġquarrel": 4376,
      "Ġcolours": 4377,
      "Ġsmells": 4378,
      "Ġinsect": 4379,
      "Ġrubber": 4380,
      "ĠTony": 4381,
      "Ġmicrophone": 4382,
      "Ġclosely": 4383,
      "Ġsailor": 4384,
      "Ġbreaks": 4385,
      "Ġzoomed": 4386,
      "Ġattention": 4387,
      "Ġfurniture": 4388,
      "Ġclapping": 4389,
      "Ġmagaz": 4390,
      "Ġmedal": 4391,
      "Ġproper": 4392,
      "Ġapologized": 4393,
      "ecause": 4394,
      "Ġplastic": 4395,
      "Ġmarched": 4396,
      "azz": 4397,
      "Ġsoftly": 4398,
      "Ġleaned": 4399,
      "Ġminute": 4400,
      "ait": 4401,
      "Ġcostume": 4402,
      "Ġchecked": 4403,
      "Ġshakes": 4404,
      "Ġrhin": 4405,
      "Ġgolf": 4406,
      "Ġchurch": 4407,
      "Ġambulance": 4408,
      "Ġoyst": 4409,
      "Ġbelow": 4410,
      "Ġeffect": 4411,
      "Ġsandcast": 4412,
      "Ġdive": 4413,
      "Ġwool": 4414,
      "Ġrespons": 4415,
      "Ġreindeer": 4416,
      "ĠFirst": 4417,
      "Ġraining": 4418,
      "Ġcups": 4419,
      "osed": 4420,
      "Ġshovel": 4421,
      "Ha": 4422,
      "Ġsoccer": 4423,
      "Ġveh": 4424,
      "ĠJul": 4425,
      "Ġhar": 4426,
      "Ġtrophy": 4427,
      "Ġstom": 4428,
      "gram": 4429,
      "Ġcelery": 4430,
      "Ġhoping": 4431,
      "Ġwife": 4432,
      "Ġdisag": 4433,
      "Ġpushes": 4434,
      "Ġaeroplane": 4435,
      "Ġincrease": 4436,
      "yle": 4437,
      "Your": 4438,
      "Ġperfectly": 4439,
      "pected": 4440,
      "Ġskill": 4441,
      "Ġcounter": 4442,
      "ival": 4443,
      "Ġfuture": 4444,
      "Mia": 4445,
      "Ġtut": 4446,
      "Ġyach": 4447,
      "con": 4448,
      "Ġshouldn": 4449,
      "Ġpeek": 4450,
      "Ġeraser": 4451,
      "Dad": 4452,
      "Ġinsist": 4453,
      "Ġeasily": 4454,
      "Ġmarry": 4455,
      "Ġunhappy": 4456,
      "Ġpowder": 4457,
      "Ġthanks": 4458,
      "Ġfreez": 4459,
      "Ġfog": 4460,
      "Ġrot": 4461,
      "Ġpolish": 4462,
      "Ġimagine": 4463,
      "allen": 4464,
      "Ġgrapes": 4465,
      "Ġenviron": 4466,
      "reek": 4467,
      "Ġkitty": 4468,
      "Ġelevator": 4469,
      "Ġmistakes": 4470,
      "Ġyoga": 4471,
      "Ġfisher": 4472,
      "Ġdiary": 4473,
      "Jim": 4474,
      "ĠKing": 4475,
      "Ġgroc": 4476,
      "Ġfeelings": 4477,
      "ety": 4478,
      "aces": 4479,
      "Ġcord": 4480,
      "Ġvend": 4481,
      "Ġhotel": 4482,
      "Ġstuffed": 4483,
      "Ġtub": 4484,
      "affe": 4485,
      "osqu": 4486,
      "Ġphoto": 4487,
      "Ġyacht": 4488,
      "Ġwelcom": 4489,
      "Ġshrimp": 4490,
      "Ġtwink": 4491,
      "ĠAdd": 4492,
      "Ġconf": 4493,
      "Ġcardboard": 4494,
      "Ġglove": 4495,
      "Ġsimp": 4496,
      "Ġquit": 4497,
      "Ġcoal": 4498,
      "Ġx": 4499,
      "Ġbreeze": 4500,
      "ĠSte": 4501,
      "Ġfactory": 4502,
      "Ġdrops": 4503,
      "ĠInstead": 4504,
      "ifl": 4505,
      "Ġmechanic": 4506,
      "Ġ201": 4507,
      "Ġeagerly": 4508,
      "Ġbaseball": 4509,
      "Ġbarks": 4510,
      "Ġminer": 4511,
      "vision": 4512,
      "Ġkingdom": 4513,
      "Ġstrip": 4514,
      "Ġfishing": 4515,
      "Ġcooler": 4516,
      "ĠInd": 4517,
      "Ġrise": 4518,
      "mm": 4519,
      "Ġchoice": 4520,
      "ĠGod": 4521,
      "Ġseeing": 4522,
      "igate": 4523,
      "pap": 4524,
      "osquito": 4525,
      "Ġfollows": 4526,
      "eros": 4527,
      "Ġlie": 4528,
      "Ġheaded": 4529,
      "Ġpine": 4530,
      "Ġdifference": 4531,
      "Ġflies": 4532,
      "ĠAmeric": 4533,
      "Ġfrogs": 4534,
      "Ġtreasures": 4535,
      "Ġiron": 4536,
      "Ġknob": 4537,
      "Ġencoura": 4538,
      "Ġtrail": 4539,
      "Ġske": 4540,
      "Ġcaul": 4541,
      "Ġcable": 4542,
      "ĠFor": 4543,
      "Ġblowing": 4544,
      "nect": 4545,
      "Ġpainter": 4546,
      "Ġwaste": 4547,
      "Ġcaulifl": 4548,
      "medi": 4549,
      "izing": 4550,
      "Ġcomplain": 4551,
      "Ġskull": 4552,
      "Ġsung": 4553,
      "iday": 4554,
      "aws": 4555,
      "Ġkay": 4556,
      "Ġmotorcycle": 4557,
      "Ġornam": 4558,
      "Jack": 4559,
      "Ġflame": 4560,
      "elcome": 4561,
      "Ġcelebrated": 4562,
      "Ġheads": 4563,
      "hero": 4564,
      "alley": 4565,
      "ĠClara": 4566,
      "Ġmosquito": 4567,
      "Ġstaff": 4568,
      "Ġtear": 4569,
      "ĠTrue": 4570,
      "Ġchallen": 4571,
      "Ġsuff": 4572,
      "lend": 4573,
      "Ġpit": 4574,
      "Ġreve": 4575,
      "orses": 4576,
      "Ġpeach": 4577,
      "Ġenvironment": 4578,
      "Ġcushion": 4579,
      "oceros": 4580,
      "Ġhut": 4581,
      "Name": 4582,
      "Ġmemories": 4583,
      "Ġconc": 4584,
      "To": 4585,
      "Ġax": 4586,
      "Ġparent": 4587,
      "Ġcauliflower": 4588,
      "Ġswung": 4589,
      "Ġlaser": 4590,
      "Ġfolder": 4591,
      "Ġsuperhero": 4592,
      "Ġgiraffe": 4593,
      "render": 4594,
      "ckey": 4595,
      "Ġshouting": 4596,
      "Ġvendor": 4597,
      "Ġhockey": 4598,
      "Ġgolden": 4599,
      "Ġremain": 4600,
      "Ġcheek": 4601,
      "Ġskelet": 4602,
      "Ġforgotten": 4603,
      "Ġslept": 4604,
      "Ġhorses": 4605,
      "Ġmixer": 4606,
      "omes": 4607,
      "Given": 4608,
      "Ġmop": 4609,
      "unately": 4610,
      "zzy": 4611,
      "ĠRob": 4612,
      "Ġwipe": 4613,
      "Ġrhinoceros": 4614,
      "Ġfisherman": 4615,
      "Ġpopped": 4616,
      "Ġtutor": 4617,
      "Is": 4618,
      "Ġ6": 4619,
      "Ġprogram": 4620,
      "Mum": 4621,
      "Mama": 4622,
      "inked": 4623,
      "Ġnewspap": 4624,
      "ĠMe": 4625,
      "lasses": 4626,
      "Ġanch": 4627,
      "Ġvac": 4628,
      "Ġreduce": 4629,
      "Ġmusician": 4630,
      "Ġthrows": 4631,
      "Ġvet": 4632,
      "Ġpoke": 4633,
      "Ġmass": 4634,
      "Ġimagination": 4635,
      "Ġdemand": 4636,
      "Ġceiling": 4637,
      "Ġchirp": 4638,
      "Ġeaten": 4639,
      "verse": 4640,
      "ĠMaggie": 4641,
      "Ġmaze": 4642,
      "Ġtelevision": 4643,
      "ĠRosie": 4644,
      "Ġunif": 4645,
      "Ġpirates": 4646,
      "Ġglowing": 4647,
      "Ġproject": 4648,
      "An": 4649,
      "cial": 4650,
      "Ġaccepted": 4651,
      "Ġswamp": 4652,
      "Ġ8": 4653,
      "Ġsneak": 4654,
      "Ġdear": 4655,
      "Ġworth": 4656,
      "mediately": 4657,
      "Ġbulb": 4658,
      "And": 4659,
      "atural": 4660,
      "Ġflea": 4661,
      "Ġtasks": 4662,
      "Ġsafety": 4663,
      "Ġvest": 4664,
      "Ġhistory": 4665,
      "Molly": 4666,
      "ĠUnited": 4667,
      "Ġig": 4668,
      "Ġsunglasses": 4669,
      "Ġdisappear": 4670,
      "case": 4671,
      "Ġmoves": 4672,
      "Ġpetals": 4673,
      "Ġfireplace": 4674,
      "Ġcontro": 4675,
      "Ġtuna": 4676,
      "Ġfought": 4677,
      "Ġigloo": 4678,
      "Ġwaving": 4679,
      "Ġitch": 4680,
      "Ġtheater": 4681,
      "Ġargue": 4682,
      "Ġseparate": 4683,
      "Ġsquirrels": 4684,
      "Ġport": 4685,
      "Ġuniform": 4686,
      "Ġfoc": 4687,
      "do": 4688,
      "ury": 4689,
      "Ġshoulder": 4690,
      "Ġavocado": 4691,
      "Ġdancer": 4692,
      "Ġtemple": 4693,
      "Ġsetting": 4694,
      "Ġhanging": 4695,
      "Ġchess": 4696,
      "itionally": 4697,
      "Ġinformation": 4698,
      "Ġskeleton": 4699,
      "Ġcollected": 4700,
      "Ġapart": 4701,
      "Ġtrade": 4702,
      "Ġanchor": 4703,
      "Ġclassroom": 4704,
      "Ġchickens": 4705,
      "Ġpos": 4706,
      "Ġlime": 4707,
      "Ġscore": 4708,
      "Ġrequest": 4709,
      "Ġpur": 4710,
      "Ġdoors": 4711,
      "Ġdecision": 4712,
      "Ġvalley": 4713,
      "ĠIts": 4714,
      "Ġcommun": 4715,
      "Ġcalls": 4716,
      "itation": 4717,
      "Ġinvestigate": 4718,
      "chair": 4719,
      "Ġcob": 4720,
      "Ġbury": 4721,
      "was": 4722,
      "llie": 4723,
      "Ġgrin": 4724,
      "Ġsniffed": 4725,
      "ym": 4726,
      "Ġthrowing": 4727,
      "oliday": 4728,
      "Ġtype": 4729,
      "Ġmicrosc": 4730,
      "Ġquietly": 4731,
      "omp": 4732,
      "Ġsurrender": 4733,
      "Ġgreedy": 4734,
      "Ġaxe": 4735,
      "Ġwelcomed": 4736,
      "Ġkeeping": 4737,
      "Ġticket": 4738,
      "Ġlawy": 4739,
      "ĠFo": 4740,
      "Ġpinch": 4741,
      "Ġentered": 4742,
      "Ġmatt": 4743,
      "Ġbeef": 4744,
      "Ġslipper": 4745,
      "Ġnapkin": 4746,
      "web": 4747,
      "Ġmattress": 4748,
      "Ġradish": 4749,
      "Ġkayak": 4750,
      "Ġsque": 4751,
      "men": 4752,
      "Ġfreezer": 4753,
      "istol": 4754,
      "Ġmystery": 4755,
      "ĠCat": 4756,
      "She": 4757,
      "Ġpear": 4758,
      "gorith": 4759,
      "Ġdiscuss": 4760,
      "Ġmagazine": 4761,
      "Ġreef": 4762,
      "Ġfuel": 4763,
      "Ġslippery": 4764,
      "Ġreceived": 4765,
      "ien": 4766,
      "Ġholiday": 4767,
      "Ġsailing": 4768,
      "Ġskirt": 4769,
      "Ġzipper": 4770,
      "Ġflapped": 4771,
      "Ġweigh": 4772,
      "Ġmicroscope": 4773,
      "oices": 4774,
      "Ġserve": 4775,
      "Ġhappens": 4776,
      "hest": 4777,
      "Ġlotion": 4778,
      "Ġmakeup": 4779,
      "Ġbouncing": 4780,
      "Ġstraight": 4781,
      "Ġfauc": 4782,
      "Ġyield": 4783,
      "laud": 4784,
      "Ġtoil": 4785,
      "ĠAr": 4786,
      "Ġsir": 4787,
      "Ġpistol": 4788,
      "Ġarmchair": 4789,
      "ering": 4790,
      "Ġheat": 4791,
      "Ġcreek": 4792,
      "ĠTina": 4793,
      "ari": 4794,
      "antly": 4795,
      "Write": 4796,
      "Ġpresents": 4797,
      "Ġcrib": 4798,
      "Ġregret": 4799,
      "Ġcared": 4800,
      "ware": 4801,
      "Ġcobweb": 4802,
      "Ġstro": 4803,
      "Ġchim": 4804,
      "20": 4805,
      "Ġsticky": 4806,
      "una": 4807,
      "asis": 4808,
      "ik": 4809,
      "Thanks": 4810,
      "Ġoyster": 4811,
      "Ġparts": 4812,
      "Ġalarm": 4813,
      "Wait": 4814,
      "Ġchimney": 4815,
      "washer": 4816,
      "Ġblood": 4817,
      "ĠEach": 4818,
      "Ġfile": 4819,
      "Ġproblems": 4820,
      "Ġcherries": 4821,
      "ĠPeople": 4822,
      "Ġattach": 4823,
      "Ġtrave": 4824,
      "ĠAd": 4825,
      "Ġfaucet": 4826,
      "Ġvroom": 4827,
      "Ġdishwasher": 4828,
      "Ġbean": 4829,
      "Ġdelay": 4830,
      "form": 4831,
      "Ġcommon": 4832,
      "lier": 4833,
      "Ġjewelry": 4834,
      "Ġapplaud": 4835,
      "Ġsizes": 4836,
      "Ġfest": 4837,
      "Ġpassport": 4838,
      "Ġconnect": 4839,
      "Ġstable": 4840,
      "Ġlawyer": 4841,
      "ission": 4842,
      "Ġtoilet": 4843,
      "Ġsplashing": 4844,
      "ĠAdditionally": 4845,
      "Ġtechnology": 4846,
      "Ġsprayed": 4847,
      "'.": 4848,
      "Ġblankets": 4849,
      "ups": 4850,
      "Ġpatterns": 4851,
      "Ġchairs": 4852,
      "Ġlawn": 4853,
      "Ġtug": 4854,
      "Ġcastles": 4855,
      "Ġspending": 4856,
      "Ġshrugged": 4857,
      "ĠSad": 4858,
      "ĠAm": 4859,
      "xy": 4860,
      "uced": 4861,
      "Ġflav": 4862,
      "Ġnewspaper": 4863,
      "Ġignored": 4864,
      "Ġburned": 4865,
      "poon": 4866,
      "Ġtrusted": 4867,
      "Ġletting": 4868,
      "ĠSee": 4869,
      "ĠFreddy": 4870,
      "Ch": 4871,
      "Ġoak": 4872,
      "Ġveil": 4873,
      "Ġward": 4874,
      "Ġshower": 4875,
      "Ġtucked": 4876,
      "Ġpuddles": 4877,
      "Ġrail": 4878,
      "Ġscolded": 4879,
      "Ġroot": 4880,
      "Ġveter": 4881,
      "Ġmatches": 4882,
      "omed": 4883,
      "Ġincluding": 4884,
      "Ġopp": 4885,
      "Ġsupply": 4886,
      "rin": 4887,
      "Ġcabinet": 4888,
      "Ġrooms": 4889,
      "'ve": 4890,
      "Ġ200": 4891,
      "ĠMat": 4892,
      "Ġpartic": 4893,
      "Ġtelephone": 4894,
      "Ġquack": 4895,
      "Ġdressed": 4896,
      "Ġraz": 4897,
      "Ġtemper": 4898,
      "Ġcras": 4899,
      "Ġwardrobe": 4900,
      "Ġfeature": 4901,
      "Ġcane": 4902,
      "Ġwarmth": 4903,
      "Ġcandles": 4904,
      "aterial": 4905,
      "inarian": 4906,
      "Ġreplace": 4907,
      "Ġblueberries": 4908,
      "vices": 4909,
      "ument": 4910,
      "Ġscratch": 4911,
      "Ġsteam": 4912,
      "Ġpuzzles": 4913,
      "Ġhopes": 4914,
      "Ġdet": 4915,
      "Ġbookshe": 4916,
      "isf": 4917,
      "Ġsitu": 4918,
      "ertain": 4919,
      "Ġtornado": 4920,
      "ictionary": 4921,
      "Ġtour": 4922,
      "Ġactivities": 4923,
      "Ġrake": 4924,
      "Ġcaring": 4925,
      "Ġgym": 4926,
      "Ġwags": 4927,
      "Ġcoats": 4928,
      "Ġveterinarian": 4929,
      "ampoo": 4930,
      "Ġexercise": 4931,
      "ĠThese": 4932,
      "Ġopera": 4933,
      "Ġalgorith": 4934,
      "Ġaccess": 4935,
      "atched": 4936,
      "Ġclaws": 4937,
      "Ġimmediately": 4938,
      "Ġmissile": 4939,
      "iring": 4940,
      "Ġcrossed": 4941,
      "Ġpra": 4942,
      "Ġplanes": 4943,
      "Ġbother": 4944,
      "Ġwhisper": 4945,
      "Ġcalend": 4946,
      "Ġweight": 4947,
      "Ġgrill": 4948,
      "bor": 4949,
      "Ġcrawling": 4950,
      "Ġbalanc": 4951,
      "Ġblouse": 4952,
      "Ġbookshelf": 4953,
      "Ġkisses": 4954,
      "Ġmaterial": 4955,
      "Ġdictionary": 4956,
      "Ġbookcase": 4957,
      "Ġseason": 4958,
      "Ġblinked": 4959,
      "Ġgear": 4960,
      "Ġcrow": 4961,
      "Ġpages": 4962,
      "Ġshampoo": 4963,
      "lect": 4964,
      "ĠRuby": 4965,
      "Ġreverse": 4966,
      "Ġisn": 4967,
      "Ġsnap": 4968,
      "ĠMilly": 4969,
      "Ġcliff": 4970,
      "ĠPl": 4971,
      "Ġsqueezed": 4972,
      "Ġearlier": 4973,
      "Ġmarried": 4974,
      "Ġsubway": 4975,
      "Ġrazor": 4976,
      "Ġrhy": 4977,
      "fortunately": 4978,
      "Ġamazement": 4979,
      "Ġsigh": 4980,
      "Ġlumber": 4981,
      "icing": 4982,
      "son": 4983,
      "Ġcalendar": 4984,
      "Ġprice": 4985,
      "Ġlaught": 4986,
      "Ġhelper": 4987,
      "Because": 4988,
      "Ġspear": 4989,
      "Ġbrand": 4990,
      "Ġmint": 4991,
      "ĠHelp": 4992,
      "ffic": 4993,
      "bbie": 4994,
      "Ġairpl": 4995,
      "Ġlaughter": 4996,
      "Ġperfume": 4997,
      "Ġremove": 4998,
      "Ġcub": 4999,
      "rent": 5000,
      "ishing": 5001,
      "ĠSnowy": 5002,
      "avid": 5003,
      "Ġprepare": 5004,
      "Ġbang": 5005,
      "Ġdef": 5006,
      "Ġmuffin": 5007,
      "Ġ18": 5008,
      "Ġringing": 5009,
      "Ġstrawberries": 5010,
      "ĠChr": 5011,
      "ĠEl": 5012,
      "Ġpoked": 5013,
      "Ġtemperature": 5014,
      "Ġnatural": 5015,
      "anges": 5016,
      "Ġsatisf": 5017,
      "Did": 5018,
      "ĠLuck": 5019,
      "Ġinvite": 5020,
      "Ġmustache": 5021,
      "Sp": 5022,
      "Ġlic": 5023,
      "ĠEx": 5024,
      "Ġrabbits": 5025,
      "Ġfestival": 5026,
      "Ġcontrol": 5027,
      "Ġworks": 5028,
      "Ġrefres": 5029,
      "Ġmoments": 5030,
      "Ġshrink": 5031,
      "Ġgain": 5032,
      "ores": 5033,
      "__": 5034,
      "Ġfallen": 5035,
      "Ġcre": 5036,
      "Ġsqueeze": 5037,
      "vant": 5038,
      "Ġbirdc": 5039,
      "Ġsimple": 5040,
      "Al": 5041,
      "Ġble": 5042,
      "riger": 5043,
      "ĠLuckily": 5044,
      "Ġbegged": 5045,
      "Ġresult": 5046,
      "ĠĠĠĠĠĠĠ": 5047,
      "sing": 5048,
      "Ġbirdcage": 5049,
      "Ġsneeze": 5050,
      "Ġflutter": 5051,
      "Ġyucky": 5052,
      "Ġraise": 5053,
      "Ġmyself": 5054,
      "Ġrefriger": 5055,
      "Ġsaving": 5056,
      "Ġdrain": 5057,
      "Welcome": 5058,
      "Ġmention": 5059,
      "Ġnation": 5060,
      "Ġalright": 5061,
      "Ġribbon": 5062,
      "Ġsurprises": 5063,
      "ĠHave": 5064,
      "anna": 5065,
      "dent": 5066,
      "Ġmemory": 5067,
      "ĠOllie": 5068,
      "Ġgrowled": 5069,
      "Ġweep": 5070,
      "ĠWho": 5071,
      "Ġvacation": 5072,
      "Ġmanage": 5073,
      "inky": 5074,
      "Ġrelaxed": 5075,
      "Ġquiz": 5076,
      "Ġcrash": 5077,
      "conom": 5078,
      "Ġcaptain": 5079,
      "Ġann": 5080,
      "Ġopt": 5081,
      "Ġteaching": 5082,
      "Ġcreating": 5083,
      "achel": 5084,
      "Ġreaches": 5085,
      "Ġbravely": 5086,
      "Ġdestination": 5087,
      "Ġ|": 5088,
      "ĠBy": 5089,
      "Ġlicks": 5090,
      "Ġenter": 5091,
      "Ġuniverse": 5092,
      "aped": 5093,
      "Ġburied": 5094,
      "Ġwandered": 5095,
      "Ġautomob": 5096,
      "Ġhearts": 5097,
      "Ġwigg": 5098,
      "Ġelectric": 5099,
      "Ġweb": 5100,
      "ists": 5101,
      "Ġhurting": 5102,
      "Ġberry": 5103,
      "Ġdried": 5104,
      "Ġbeans": 5105,
      "Ġ7": 5106,
      "struct": 5107,
      "Ġplates": 5108,
      "Ġrefrigerator": 5109,
      "Ġhomes": 5110,
      "Ġkneel": 5111,
      "ĠStates": 5112,
      "Ok": 5113,
      "Ġoasis": 5114,
      "Ġworms": 5115,
      "ality": 5116,
      "Ġpastry": 5117,
      "ĠSteve": 5118,
      "Ġteas": 5119,
      "Ġfastest": 5120,
      "Ġbathe": 5121,
      "Ġbrain": 5122,
      "ĠBuzz": 5123,
      "Ġservice": 5124,
      "dentify": 5125,
      "Ġbelieved": 5126,
      "Ġapron": 5127,
      "amber": 5128,
      "ĠQu": 5129,
      "Ġlabel": 5130,
      "ĠBetsy": 5131,
      "omeday": 5132,
      "Ġsandcastle": 5133,
      "Ġbased": 5134,
      "Ġornament": 5135,
      "Ġrisk": 5136,
      "Ġjunk": 5137,
      "rm": 5138,
      "ĠJoy": 5139,
      "Ġignore": 5140,
      "angers": 5141,
      "izard": 5142,
      "ĠDavid": 5143,
      "Ġdestroyed": 5144,
      "Ġskills": 5145,
      "pe": 5146,
      "Ġteaspoon": 5147,
      "Ġspade": 5148,
      "Ġ$": 5149,
      "htray": 5150,
      "Ġspots": 5151,
      "Ġemer": 5152,
      "Ġashtray": 5153,
      "Ġbuckle": 5154,
      "Ġappreciate": 5155,
      "ĠKatie": 5156,
      "Ġstyle": 5157,
      "ĠRachel": 5158,
      "Ġencouraged": 5159,
      "Ġwhip": 5160,
      "Ġweeks": 5161,
      "Ġscattered": 5162,
      "Ġamount": 5163,
      "Ġboot": 5164,
      "Ġharbor": 5165,
      "ĠGr": 5166,
      "ĠNew": 5167,
      "Ġoranges": 5168,
      "Ġthumb": 5169,
      "Ġeasier": 5170,
      "rect": 5171,
      "rise": 5172,
      "Ġvehicle": 5173,
      "Ġbeamed": 5174,
      "Ġstruggling": 5175,
      "Ġdecorations": 5176,
      "Ġsettled": 5177,
      "Ġsnapped": 5178,
      "Explain": 5179,
      "ĠJan": 5180,
      "Ġinsisted": 5181,
      "Ġtong": 5182,
      "Sh": 5183,
      "Ġsparkling": 5184,
      "Ġwag": 5185,
      "ero": 5186,
      "Ġreleased": 5187,
      "Ġsocks": 5188,
      "Ġweap": 5189,
      "ĠEveryday": 5190,
      "Ġshopping": 5191,
      "Ġwebs": 5192,
      "Ġsomeday": 5193,
      "od": 5194,
      "Ġbumped": 5195,
      ").": 5196,
      "ĠFrank": 5197,
      "Ġvanished": 5198,
      "Ġappear": 5199,
      "Ġuniversity": 5200,
      "riend": 5201,
      "mar": 5202,
      "19": 5203,
      "Ġuses": 5204,
      "iers": 5205,
      "Ġhurric": 5206,
      "bbled": 5207,
      "Ġev": 5208,
      "ĠLiz": 5209,
      "Ġtherm": 5210,
      "ĠDe": 5211,
      "Ġeffort": 5212,
      "Ġtoes": 5213,
      "Ġbreathe": 5214,
      "Ġpermission": 5215,
      "Ġpub": 5216,
      "Ġlicense": 5217,
      "Identify": 5218,
      "Ġpride": 5219,
      "Ġtrad": 5220,
      "Ġbathrobe": 5221,
      "Ġjail": 5222,
      "Ġcollection": 5223,
      "Ġwine": 5224,
      "ization": 5225,
      "Ġplays": 5226,
      "Ġusually": 5227,
      "List": 5228,
      "Ġinvol": 5229,
      "eed": 5230,
      "Ġwashing": 5231,
      "Ġshot": 5232,
      "Ġdaisy": 5233,
      "cles": 5234,
      "Ġdescri": 5235,
      "Ġinstruct": 5236,
      "Ġanaly": 5237,
      "Ġblackboard": 5238,
      "Ġjewels": 5239,
      "igail": 5240,
      "Ġtease": 5241,
      "Ġyawned": 5242,
      "ĠRa": 5243,
      "Ġchirping": 5244,
      "Ġhardly": 5245,
      "Ġsparkle": 5246,
      "Ġdeeper": 5247,
      "Ġgoals": 5248,
      "Ġsunlight": 5249,
      "Ġaff": 5250,
      "Ġdare": 5251,
      "Ġpatiently": 5252,
      "Ġlemonade": 5253,
      "Ġmall": 5254,
      "Ġple": 5255,
      "Ġscooped": 5256,
      "Ġwaffle": 5257,
      "Ġflood": 5258,
      "Ġpulling": 5259,
      "Ġneighborhood": 5260,
      "Ġhate": 5261,
      "Ġhanger": 5262,
      "Ġhes": 5263,
      "adium": 5264,
      "Ġcond": 5265,
      "iety": 5266,
      "Ġprec": 5267,
      "ism": 5268,
      "raph": 5269,
      "Ġactually": 5270,
      "Ġreceive": 5271,
      "Ġnone": 5272,
      "Ġcustomers": 5273,
      "Ġsolved": 5274,
      "ĠAbigail": 5275,
      "Ġcountries": 5276,
      "ĠPoppy": 5277,
      "Ġrestore": 5278,
      "Ġwizard": 5279,
      "ĠNot": 5280,
      "ipment": 5281,
      "Ġbuzzing": 5282,
      "Ġhills": 5283,
      "amb": 5284,
      "osity": 5285,
      "Ġident": 5286,
      "Ġeconom": 5287,
      "Ġsausage": 5288,
      "Ġautomobile": 5289,
      "Ġdresses": 5290,
      "Ġlevel": 5291,
      "ĠCar": 5292,
      "ulation": 5293,
      "Ġsits": 5294,
      "Ġcuddled": 5295,
      "Ġbrings": 5296,
      "Ġwarning": 5297,
      "ĠPenny": 5298,
      "Ġmeasured": 5299,
      "Ġpoppy": 5300,
      "Ġhits": 5301,
      "Ġtaller": 5302,
      "Ġpraised": 5303,
      "ĠMor": 5304,
      "ĠWor": 5305,
      "Ġchamber": 5306,
      "ecture": 5307,
      "Ġdirect": 5308,
      "Ġawe": 5309,
      "igging": 5310,
      "Yuck": 5311,
      "Ġequipment": 5312,
      "Ġremained": 5313,
      "avi": 5314,
      "ggy": 5315,
      "Ġairplane": 5316,
      "Ġguy": 5317,
      "nies": 5318,
      "Ġmountains": 5319,
      "Ġresponsible": 5320,
      "Ġsunrise": 5321,
      "but": 5322,
      "Ġcontinue": 5323,
      "Ġrhyth": 5324,
      "Ġsurrounded": 5325,
      "Ġdiscovery": 5326,
      "Ġpunish": 5327,
      "Ġdigging": 5328,
      "Ġworse": 5329,
      "Ġhurricane": 5330,
      "Ġeffic": 5331,
      "Ġapproached": 5332,
      "Ġsingle": 5333,
      "Ġcurrent": 5334,
      "Ġpotential": 5335,
      "Ġpotatoes": 5336,
      "ĠEarth": 5337,
      "Ġmitten": 5338,
      "ler": 5339,
      "Ġinfant": 5340,
      "Ġpoison": 5341,
      "Ġstadium": 5342,
      "Ġtomatoes": 5343,
      "Ġbleed": 5344,
      "ley": 5345,
      "ĠGood": 5346,
      "Ġrepe": 5347,
      "ura": 5348,
      "ometer": 5349,
      "Ġ9": 5350,
      "Mmm": 5351,
      "adows": 5352,
      "Ġexamine": 5353,
      "Ġtwisted": 5354,
      "ĠSpike": 5355,
      "oved": 5356,
      "Ġtongue": 5357,
      "Ġserved": 5358,
      "Ġclimbs": 5359,
      "Ġsneezed": 5360,
      "Ġcrunch": 5361,
      "xygen": 5362,
      "Ġtore": 5363,
      "Ġupstairs": 5364,
      "Ġbegin": 5365,
      "Ġleak": 5366,
      "Ġrepeat": 5367,
      "Ġhers": 5368,
      "Ġpillows": 5369,
      "Ġshooting": 5370,
      "Ġbillboard": 5371,
      "Ġsix": 5372,
      "Ġimage": 5373,
      "Ġfloat": 5374,
      "ompl": 5375,
      "Ġfasc": 5376,
      "ledge": 5377,
      "Ġgrey": 5378,
      "Ġfixing": 5379,
      "ĠSpark": 5380,
      "Ġallow": 5381,
      "ĠJe": 5382,
      "Ġglowed": 5383,
      "Ġsigns": 5384,
      "Ġpanic": 5385,
      "Ġfiref": 5386,
      "sure": 5387,
      "Ġthrilled": 5388,
      "Ġcomple": 5389,
      "Ġcollecting": 5390,
      "Ġranch": 5391,
      "Ġpaints": 5392,
      "These": 5393,
      "Ġobserve": 5394,
      "Ġaccompl": 5395,
      "py": 5396,
      "Jimmy": 5397,
      "Ġjazz": 5398,
      "ults": 5399,
      "Ġshed": 5400,
      "Ġfloating": 5401,
      "Ġgifts": 5402,
      "etch": 5403,
      "Ġwisdom": 5404,
      "Ġ+": 5405,
      "Ġthermometer": 5406,
      "Ġchores": 5407,
      "Mummy": 5408,
      "Ġsparkles": 5409,
      "Ġstomach": 5410,
      "omas": 5411,
      "Ġoutdo": 5412,
      "Ġfloated": 5413,
      "Ġimportance": 5414,
      "Ġsolution": 5415,
      "obal": 5416,
      "emember": 5417,
      "Ġmassage": 5418,
      "ords": 5419,
      "Ġrust": 5420,
      "Ġrhythm": 5421,
      "Ġsituation": 5422,
      "Ġhighest": 5423,
      "Ġda": 5424,
      "Ġsupposed": 5425,
      "Ġgrocery": 5426,
      "Ġprof": 5427,
      "!'": 5428,
      "Ġapplic": 5429,
      "Ġcaused": 5430,
      "vet": 5431,
      "!\",": 5432,
      "Ġgust": 5433,
      "Would": 5434,
      "Ġcherry": 5435,
      "Ġfed": 5436,
      "oves": 5437,
      "Ġtraffic": 5438,
      "anny": 5439,
      "Ġmaj": 5440,
      "ĠUnfortunately": 5441,
      "ays": 5442,
      "inated": 5443,
      "Ġlines": 5444,
      "Ġlandsc": 5445,
      "ux": 5446,
      "umble": 5447,
      "ĠInt": 5448,
      "Ġdrinks": 5449,
      "Ġonline": 5450,
      "rr": 5451,
      "Ġmineral": 5452,
      "Ġbenef": 5453,
      "Ġsew": 5454,
      "Ġspaces": 5455,
      "Ġpalm": 5456,
      "Ġpaused": 5457,
      "Ġgrinned": 5458,
      "Ġmeowed": 5459,
      "Ġelephants": 5460,
      "Ġuser": 5461,
      "ĠOut": 5462,
      "Ġsprinkles": 5463,
      "Ġinput": 5464,
      "Ġgirls": 5465,
      "Ġlily": 5466,
      "Ġmarbles": 5467,
      "Ġurge": 5468,
      "Ġbites": 5469,
      "Ġbak": 5470,
      "Ġcartoons": 5471,
      "Ġburning": 5472,
      "----": 5473,
      "Ġrush": 5474,
      "Bob": 5475,
      "Ġolive": 5476,
      "ĠEng": 5477,
      "Ġtide": 5478,
      "osh": 5479,
      "Ġexact": 5480,
      "Ġtracks": 5481,
      "Not": 5482,
      "hys": 5483,
      "Ġordered": 5484,
      "Ġunite": 5485,
      "Ġmeaning": 5486,
      "Ġprovided": 5487,
      "Ġmelted": 5488,
      "ional": 5489,
      "Ġbrus": 5490,
      "ĠCla": 5491,
      "Ġlaid": 5492,
      "oming": 5493,
      "ĠRemy": 5494,
      "Ġknowledge": 5495,
      "Ġsore": 5496,
      "Ġchewed": 5497,
      "uly": 5498,
      "Ġcakes": 5499,
      "Ġracing": 5500,
      "Ġ<": 5501,
      "Ġjogging": 5502,
      "Ġlugg": 5503,
      "Ġmenu": 5504,
      "Ġbes": 5505,
      "Ġsurface": 5506,
      "enty": 5507,
      "Ġ#": 5508,
      "Ġluggage": 5509,
      "Ġperformance": 5510,
      "walk": 5511,
      "Ġvict": 5512,
      "Ġweapon": 5513,
      "Ġmillion": 5514,
      "Ġinstructions": 5515,
      "Ġtoe": 5516,
      "Ġopin": 5517,
      "Ġchirped": 5518,
      "bers": 5519,
      "Ġscur": 5520,
      "Ġfolded": 5521,
      "Ġoat": 5522,
      "Ġearthqu": 5523,
      "Ġmonth": 5524,
      "ĠAmerican": 5525,
      "Ġmailman": 5526,
      "Ġimpact": 5527,
      "Ġraised": 5528,
      "Ġwherever": 5529,
      "ĠZoe": 5530,
      "Ġcause": 5531,
      "Ġhesit": 5532,
      "ĠSund": 5533,
      "ĠThomas": 5534,
      "Ġeagle": 5535,
      "ĠFro": 5536,
      "Ġspill": 5537,
      "ales": 5538,
      "Ġdam": 5539,
      "vies": 5540,
      "Ġcurled": 5541,
      "Ġi": 5542,
      "ĠBeth": 5543,
      "mother": 5544,
      "Ġcorrect": 5545,
      "Ġslice": 5546,
      "Ġsliding": 5547,
      "Ġoxygen": 5548,
      "Ġselling": 5549,
      "Ġsip": 5550,
      "Ġocc": 5551,
      "Ġeveryday": 5552,
      "Ġsocial": 5553,
      "Ġwooden": 5554,
      "Ġprepared": 5555,
      "Ġseats": 5556,
      "Ġrow": 5557,
      "Ġgrape": 5558,
      "Ġturning": 5559,
      "Ġwatered": 5560,
      "bbles": 5561,
      "Ġmachines": 5562,
      "Ġarticle": 5563,
      "Ġtwigs": 5564,
      "ĠBig": 5565,
      "Ġwritten": 5566,
      "ĠSomeone": 5567,
      "Ġmult": 5568,
      "nie": 5569,
      "Ġgloves": 5570,
      "ivity": 5571,
      "Ġattached": 5572,
      "Ġbuildings": 5573,
      "Ġcopper": 5574,
      "Ġ0": 5575,
      "Ġoperation": 5576,
      "Ġbricks": 5577,
      "Ġlands": 5578,
      "ica": 5579,
      "ificial": 5580,
      "ĠLuna": 5581,
      "ĠJam": 5582,
      "Ġkindly": 5583,
      "Ġfocus": 5584,
      "Ġfash": 5585,
      "Ġsoldiers": 5586,
      "Ġdrinking": 5587,
      "Ġadmiring": 5588,
      "ason": 5589,
      "ication": 5590,
      "umes": 5591,
      "Ġmovies": 5592,
      "Will": 5593,
      "Ġsim": 5594,
      "ĠLa": 5595,
      "Ġbeat": 5596,
      "Ġskipping": 5597,
      "Ready": 5598,
      "Ġreminder": 5599,
      "Ġwond": 5600,
      "Ġlandscape": 5601,
      "ulate": 5602,
      "Ġinvitation": 5603,
      "ĠNut": 5604,
      "joyed": 5605,
      "Ġstrangers": 5606,
      "Ġgaz": 5607,
      "Ġpetted": 5608,
      "the": 5609,
      "Ġlick": 5610,
      "Ġgotten": 5611,
      "Ġzipped": 5612,
      "Ġpigs": 5613,
      "When": 5614,
      "Ġsafari": 5615,
      "ĠKe": 5616,
      "ĠMad": 5617,
      "Ġsides": 5618,
      "Ġmission": 5619,
      "Ġfeatures": 5620,
      "ently": 5621,
      "Ġbeside": 5622,
      "Ġnavy": 5623,
      "Ġgrowl": 5624,
      "Ġoverjoyed": 5625,
      "Ġdied": 5626,
      "Ġcutting": 5627,
      "Ġrecognized": 5628,
      "Ġexpress": 5629,
      "zag": 5630,
      "Ġfamil": 5631,
      "Ġwhistling": 5632,
      "Ġlets": 5633,
      "ivid": 5634,
      "ĠSc": 5635,
      "ĠSw": 5636,
      "nes": 5637,
      "Ġinstr": 5638,
      "Ġwatches": 5639,
      "Ġofficer": 5640,
      "Ġchat": 5641,
      "Ġfashion": 5642,
      "ĠUS": 5643,
      "Ġsidewalk": 5644,
      "seek": 5645,
      "Ġprayed": 5646,
      "ding": 5647,
      "Ġweren": 5648,
      "mble": 5649,
      "Ġherb": 5650,
      "Ġmarching": 5651,
      "Ġachieve": 5652,
      "Ġacorns": 5653,
      "iment": 5654,
      "idges": 5655,
      "Ġdep": 5656,
      "Ġpred": 5657,
      "Ġcompetition": 5658,
      "Ġprinter": 5659,
      "Ġapologize": 5660,
      "rees": 5661,
      "Ġwre": 5662,
      "ĠChl": 5663,
      "Ġbrick": 5664,
      "Ġtim": 5665,
      "Ġdisagreed": 5666,
      "tle": 5667,
      "ena": 5668,
      "ath": 5669,
      "Ġkeeper": 5670,
      "Ġpeered": 5671,
      "Ġrecognize": 5672,
      "Ġtalent": 5673,
      "Ġagreement": 5674,
      "Ġsettle": 5675,
      "ĠJulie": 5676,
      "Ġcrashed": 5677,
      "Ġvel": 5678,
      "Ġanswers": 5679,
      "ĠCon": 5680,
      "rs": 5681,
      "ĠMoral": 5682,
      "Ġbank": 5683,
      "Ġincreased": 5684,
      "ploy": 5685,
      "Ġpeanuts": 5686,
      "igzag": 5687,
      "Ġlip": 5688,
      "Ġbehavi": 5689,
      "Ġchallenge": 5690,
      "Ġdoggy": 5691,
      "Ġonwards": 5692,
      "Ġcrunchy": 5693,
      "lish": 5694,
      "Ġmeasuring": 5695,
      "Ġrevealed": 5696,
      "ĠSure": 5697,
      "ĠKay": 5698,
      "Ġsecrets": 5699,
      "Ġtypes": 5700,
      "Ġshadows": 5701,
      "Ġcode": 5702,
      "Ġhappiest": 5703,
      "Ġplanted": 5704,
      "Ġwinning": 5705,
      "Ġvisiting": 5706,
      "fy": 5707,
      "Ġservices": 5708,
      "ĠWorld": 5709,
      "terday": 5710,
      "Ġrefreshed": 5711,
      "Ouch": 5712,
      "iders": 5713,
      "Ġpets": 5714,
      "Ġlecture": 5715,
      "Ġearthquake": 5716,
      "Ġpitch": 5717,
      "Ġtip": 5718,
      "Ġfireworks": 5719,
      "Ġwarn": 5720,
      "Ġours": 5721,
      "ĠUncle": 5722,
      "Ġwebsite": 5723,
      "die": 5724,
      "Ġcreation": 5725,
      "Ġsteel": 5726,
      "âĢĵ": 5727,
      "Ġhurried": 5728,
      "Ġeast": 5729,
      "Ġclearing": 5730,
      "Ġdinosaurs": 5731,
      "ĠSl": 5732,
      "Ġbreaking": 5733,
      "ances": 5734,
      "Ġsoftware": 5735,
      "ĠOl": 5736,
      "Ġwhistled": 5737,
      "arch": 5738,
      "Ġescaped": 5739,
      "Ġaud": 5740,
      "Ġpies": 5741,
      "Or": 5742,
      "ĠChloe": 5743,
      "cl": 5744,
      "oss": 5745,
      "embers": 5746,
      "ĠSuzy": 5747,
      "Ġmister": 5748,
      "aster": 5749,
      "Ġphys": 5750,
      "Ġtremb": 5751,
      "ĠSadly": 5752,
      "Ġpublic": 5753,
      "Ġbridges": 5754,
      "ĠChir": 5755,
      "Ġbringing": 5756,
      "ĠSunny": 5757,
      "ĠMon": 5758,
      "Ġproperly": 5759,
      "ishes": 5760,
      "Ġspoons": 5761,
      "Ġbones": 5762,
      "Ġparticular": 5763,
      "Ġflap": 5764,
      "Ġsucceeded": 5765,
      "though": 5766,
      "Ġprune": 5767,
      "Ġcomfy": 5768,
      "Ġrul": 5769,
      "Ġcertain": 5770,
      "ption": 5771,
      "Ġresour": 5772,
      "orth": 5773,
      "Ġpadd": 5774,
      "ship": 5775,
      "Ġrelease": 5776,
      "sting": 5777,
      "Jill": 5778,
      "000": 5779,
      "Ġscratched": 5780,
      "Ġlips": 5781,
      "Ġintern": 5782,
      "Wh": 5783,
      "Ġpracticing": 5784,
      "Ġbowed": 5785,
      "ĠSunday": 5786,
      "Ġsnowball": 5787,
      "ĠSharing": 5788,
      "Ġpanc": 5789,
      "Ġprecious": 5790,
      "Ġalgorithm": 5791,
      "go": 5792,
      "urity": 5793,
      "Ġexactly": 5794,
      "Ġremembers": 5795,
      "Ġdue": 5796,
      "Rew": 5797,
      "Ġwhatever": 5798,
      "Ġowned": 5799,
      "Ġsecure": 5800,
      "Ġsever": 5801,
      "Ġcrept": 5802,
      "Ġwonders": 5803,
      "Ġhated": 5804,
      "10": 5805,
      "Ġbeds": 5806,
      "Ġscient": 5807,
      "Con": 5808,
      "uke": 5809,
      "Ġexpect": 5810,
      "Ġstudied": 5811,
      "Ġslip": 5812,
      "Ġstudying": 5813,
      "itional": 5814,
      "Ġmuddy": 5815,
      "Ġcompl": 5816,
      "Find": 5817,
      "Ġbye": 5818,
      "Really": 5819,
      "view": 5820,
      "Ġvoices": 5821,
      "Ġleading": 5822,
      "Ġspaceship": 5823,
      "sters": 5824,
      "Ġperched": 5825,
      "Ġrained": 5826,
      "Ġtastes": 5827,
      "ĠPip": 5828,
      "Ġstudents": 5829,
      "Ġstrings": 5830,
      "no": 5831,
      "Ġbun": 5832,
      "Ġanytime": 5833,
      "Ġentire": 5834,
      "Ġobe": 5835,
      "Ġscreams": 5836,
      "Ġpedal": 5837,
      "Ġfoods": 5838,
      "Ġdrag": 5839,
      "va": 5840,
      "agers": 5841,
      "Ġimproved": 5842,
      "Ġsoared": 5843,
      "ateg": 5844,
      "Ġpupp": 5845,
      "Ġseveral": 5846,
      "vern": 5847,
      "Ġsource": 5848,
      "Ġsupplies": 5849,
      "Ġcircus": 5850,
      "gers": 5851,
      "Ġtrapped": 5852,
      "Ġleather": 5853,
      "ĠJosh": 5854,
      "Billy": 5855,
      "Ġbeneath": 5856,
      "Ġwinner": 5857,
      "ucing": 5858,
      "Ġglobal": 5859,
      "icorn": 5860,
      "annah": 5861,
      "ĠEn": 5862,
      "Ġ199": 5863,
      "Ġcomforted": 5864,
      "Ġdisturbed": 5865,
      "ĠCarl": 5866,
      "Ġvictory": 5867,
      "Ġgained": 5868,
      "Ġsisters": 5869,
      "Ġunicorn": 5870,
      "Ġcuriosity": 5871,
      "Ġintelligence": 5872,
      "Ġrested": 5873,
      "Comp": 5874,
      "ĠJamie": 5875,
      "Ġtex": 5876,
      "oh": 5877,
      "Ġcuddle": 5878,
      "Ġrang": 5879,
      "Ġzigzag": 5880,
      "Ġoats": 5881,
      "Ġolives": 5882,
      "Ġplanned": 5883,
      "Daddy": 5884,
      "anta": 5885,
      "eries": 5886,
      "Ġsadness": 5887,
      "neath": 5888,
      "olution": 5889,
      "Ġvelvet": 5890,
      "Ġproviding": 5891,
      "Ġfact": 5892,
      "Ġsings": 5893,
      "Ġ[": 5894,
      "ĠBoth": 5895,
      "Ġchef": 5896,
      "Ġgrandmother": 5897,
      "Ġcompleted": 5898,
      "Ġobey": 5899,
      "vert": 5900,
      "Ġwaits": 5901,
      "Ġnails": 5902,
      "ĠNutty": 5903,
      "âĢĿ.": 5904,
      "Ġoutdoors": 5905,
      "uing": 5906,
      "ĠMa": 5907,
      "ne": 5908,
      "Gra": 5909,
      "Ġwaist": 5910,
      "Ġcatching": 5911,
      "lled": 5912,
      "Ġsoak": 5913,
      "inda": 5914,
      "Ġobjects": 5915,
      "Ġstate": 5916,
      "rig": 5917,
      "pite": 5918,
      "resent": 5919,
      "Ġunderground": 5920,
      "Ġproducts": 5921,
      "Ġgathering": 5922,
      "ana": 5923,
      "sequ": 5924,
      "Ġswims": 5925,
      "ĠHop": 5926,
      "...": 5927,
      "Ġsatisfied": 5928,
      "gency": 5929,
      "Ġconfident": 5930,
      "Ġrid": 5931,
      "mare": 5932,
      "Ġintroduced": 5933,
      "Ġphra": 5934,
      "Ġdoctors": 5935,
      "Ġzero": 5936,
      "Ġkeys": 5937,
      "ability": 5938,
      "Ġago": 5939,
      "Ġmajor": 5940,
      "ĠFloppy": 5941,
      "Ġcostumes": 5942,
      "Ġwest": 5943,
      "ĠRabbit": 5944,
      "Ġthird": 5945,
      "Ġladyb": 5946,
      "ĠAnne": 5947,
      "Ġwithin": 5948,
      "Ġsense": 5949,
      "Ġgen": 5950,
      "Ġlux": 5951,
      "):": 5952,
      "iggy": 5953,
      "Ġbecoming": 5954,
      "ĠLucky": 5955,
      "Ġbrushed": 5956,
      "Ġavo": 5957,
      "ody": 5958,
      "Ġstripes": 5959,
      "Ġcaut": 5960,
      "Ġfascinated": 5961,
      "Ġwaffles": 5962,
      "Ġaccidents": 5963,
      "Ġunlocked": 5964,
      "Ġdirection": 5965,
      "Ġtremble": 5966,
      "ĠTiny": 5967,
      "Ġvillagers": 5968,
      "Ġvent": 5969,
      "Ġstatement": 5970,
      "Ġlem": 5971,
      "Ġpupil": 5972,
      "Ġclimate": 5973,
      "Ġpositive": 5974,
      "Ġfetch": 5975,
      "Ġwanting": 5976,
      "Ġdeser": 5977,
      "action": 5978,
      "ĠLou": 5979,
      "Ġrese": 5980,
      "int": 5981,
      "Ġreplac": 5982,
      "Ġnightmare": 5983,
      "Ġeight": 5984,
      "Ġsuffer": 5985,
      "Rewrite": 5986,
      "ĠCoco": 5987,
      "Ġpres": 5988,
      "Ġstruggled": 5989,
      "Ġmentioned": 5990,
      "Ġsoaring": 5991,
      "Ġherbs": 5992,
      "Ġage": 5993,
      "Ġblueberry": 5994,
      "ĠBir": 5995,
      "ulu": 5996,
      "Ġjogged": 5997,
      "ades": 5998,
      "Ġaction": 5999,
      "expected": 6000,
      "Ġknelt": 6001,
      "Ġmouths": 6002,
      "Ġpoll": 6003,
      "Ġmotion": 6004,
      "Ġintroduce": 6005,
      "Ġargued": 6006,
      "Spot": 6007,
      "ĠHa": 6008,
      "Ġlemons": 6009,
      "Ġwondering": 6010,
      "Ġdownstairs": 6011,
      "Ġbend": 6012,
      "Ġstirring": 6013,
      "Ġlower": 6014,
      "Ġfreeze": 6015,
      "isions": 6016,
      "Ġmonsters": 6017,
      "Ġamong": 6018,
      "Ġcamping": 6019,
      "agull": 6020,
      "ept": 6021,
      "Ġstealing": 6022,
      "Ġcape": 6023,
      "Ġcharacters": 6024,
      "Ġmaterials": 6025,
      "ĠClaire": 6026,
      "looking": 6027,
      "sed": 6028,
      "Ġeats": 6029,
      "ĠAdam": 6030,
      "ĠNina": 6031,
      "Ġtune": 6032,
      "Ġiss": 6033,
      "Ġgrant": 6034,
      "Ġtypically": 6035,
      "Ġbare": 6036,
      "Ġmetho": 6037,
      "Ġpunished": 6038,
      "Ġexamined": 6039,
      "Ġtit": 6040,
      "Ġpeel": 6041,
      "ĠSomething": 6042,
      "Ġboo": 6043,
      "Ġflat": 6044,
      "Ġindivid": 6045,
      "Ġdecorated": 6046,
      "ĊĠ": 6047,
      "Ġrepeated": 6048,
      "aded": 6049,
      "Little": 6050,
      "Ġunexpected": 6051,
      "Ġincluded": 6052,
      "ĠBetty": 6053,
      "Ġbaked": 6054,
      "Ġglitter": 6055,
      "Ġexpected": 6056,
      "Ġmice": 6057,
      "Ġtot": 6058,
      "Ġincreasing": 6059,
      "Ġplayers": 6060,
      "Ġsi": 6061,
      "Ġsights": 6062,
      "unes": 6063,
      "Ġbleeding": 6064,
      "Ġseagull": 6065,
      "Ġpancakes": 6066,
      "Ġlim": 6067,
      "Ġrides": 6068,
      "Ġguessed": 6069,
      "ĠTilly": 6070,
      "ĠJune": 6071,
      "Ġnicer": 6072,
      "Ġpopulation": 6073,
      "ĠChrist": 6074,
      "owers": 6075,
      "Ġunderneath": 6076,
      "Ġbenefits": 6077,
      "ortun": 6078,
      "Ġdesigned": 6079,
      "vin": 6080,
      "Ġpearl": 6081,
      "Ġtickets": 6082,
      "Ġripped": 6083,
      "Ġtexture": 6084,
      "Ġwagging": 6085,
      "Ġ202": 6086,
      "Ġburrow": 6087,
      "Ġshivering": 6088,
      "Ġpiles": 6089,
      "Ġfab": 6090,
      "Ġplanets": 6091,
      "Ġbunnies": 6092,
      "ĠBubbles": 6093,
      "Ġcrowd": 6094,
      "ĠChirpy": 6095,
      "Ġloaded": 6096,
      "iously": 6097,
      "Ġzooming": 6098,
      "Ġsports": 6099,
      "Ġwreck": 6100,
      "Yum": 6101,
      "Ġmixing": 6102,
      "Ġ15": 6103,
      "ids": 6104,
      "Ġexit": 6105,
      "Ġresources": 6106,
      "irm": 6107,
      "Ġrequire": 6108,
      "ky": 6109,
      "Ġpeaches": 6110,
      "Ġfirefight": 6111,
      "Ġpowers": 6112,
      "Ġsystems": 6113,
      "Ġstitch": 6114,
      "Ġ12": 6115,
      "Ġtugged": 6116,
      "uesday": 6117,
      "Ġdraws": 6118,
      "Ġmiles": 6119,
      "Ġweighed": 6120,
      "Ġteasing": 6121,
      "zen": 6122,
      "aky": 6123,
      "Ġinch": 6124,
      "Ġprinted": 6125,
      "Ġfiremen": 6126,
      "Ġneighbourhood": 6127,
      "Ġmedia": 6128,
      "Ġthreat": 6129,
      "iter": 6130,
      ".'": 6131,
      "Ġloving": 6132,
      "Ġtwirling": 6133,
      "ĠJessie": 6134,
      "Ġdrift": 6135,
      "Ġprints": 6136,
      "Happy": 6137,
      "ĠLulu": 6138,
      "mail": 6139,
      "Ġcompan": 6140,
      "Ġpermit": 6141,
      "Ġourselves": 6142,
      "ĠHannah": 6143,
      "Ġplenty": 6144,
      "Ġyelling": 6145,
      "Ġflavor": 6146,
      "Ġrealize": 6147,
      "Ġcaus": 6148,
      "Ġprotected": 6149,
      "Ġaccomplish": 6150,
      "Ġstretching": 6151,
      "ibility": 6152,
      "Ġslapped": 6153,
      "kins": 6154,
      "Ġleader": 6155,
      "iversity": 6156,
      "ĠSusan": 6157,
      "ĠLike": 6158,
      "Ġmi": 6159,
      "Ġest": 6160,
      "ĠIm": 6161,
      "indy": 6162,
      "Ġshock": 6163,
      "ĠDid": 6164,
      "Ġemergency": 6165,
      "Ġdisagree": 6166,
      "Ġstair": 6167,
      "Ġitem": 6168,
      "Ġess": 6169,
      "ĠTuesday": 6170,
      "Ġbunch": 6171,
      "Ġmarks": 6172,
      "Ġshoulders": 6173,
      "Ġbudge": 6174,
      "Ġopportun": 6175,
      "val": 6176,
      "Ġast": 6177,
      "iar": 6178,
      "iving": 6179,
      "Ġspiders": 6180,
      "ĠPro": 6181,
      "Ġindust": 6182,
      "hins": 6183,
      "Ġpears": 6184,
      "Ġhumans": 6185,
      "Pro": 6186,
      "ĠAunt": 6187,
      "ĠWed": 6188,
      "Ġresults": 6189,
      "Ġstruck": 6190,
      "Ġmuscles": 6191,
      "Ġmuffins": 6192,
      "Ġkeeps": 6193,
      "nesday": 6194,
      "ĠSanta": 6195,
      "uments": 6196,
      "verage": 6197,
      "Ġpastel": 6198,
      "Ġrange": 6199,
      "Ġbeha": 6200,
      "Ġpockets": 6201,
      "Ġsiren": 6202,
      "Ġopinion": 6203,
      "Ġyouth": 6204,
      "Ġfabric": 6205,
      "Ġsorting": 6206,
      "Ġpersonal": 6207,
      "ĠJeff": 6208,
      "Ġefficient": 6209,
      "ivery": 6210,
      "Ġemploy": 6211,
      "Ġpinched": 6212,
      "Ġchanges": 6213,
      "allow": 6214,
      "Ġsorted": 6215,
      "Ġneighbors": 6216,
      "Ġrepresent": 6217,
      "Ġdevelopment": 6218,
      "ĠChe": 6219,
      "ashed": 6220,
      "Ġowners": 6221,
      "Ġidentify": 6222,
      "bbing": 6223,
      "Ġladybug": 6224,
      "ĠWednesday": 6225,
      "Ġgovern": 6226,
      "Ġsteep": 6227,
      "Ġfrosting": 6228,
      "Ġelements": 6229,
      "Ġsneaked": 6230,
      "Ġgiggling": 6231,
      "ĠApp": 6232,
      "riage": 6233,
      "ĠDes": 6234,
      "Ġbroom": 6235,
      "Ġluxury": 6236,
      "Ġchips": 6237,
      "ĠMil": 6238,
      "jam": 6239,
      "Ġcones": 6240,
      "Ġtonight": 6241,
      "ĠPh": 6242,
      "usted": 6243,
      "Goodbye": 6244,
      "Ġtouching": 6245,
      "ĠAbby": 6246,
      "icles": 6247,
      "Ġdiscovering": 6248,
      "Ġeduc": 6249,
      "Ġleast": 6250,
      "ira": 6251,
      "Ġscoop": 6252,
      "ĠZoom": 6253,
      "oed": 6254,
      "Ġdecisions": 6255,
      "Ġprofess": 6256,
      "Ġclick": 6257,
      "Ġruler": 6258,
      "Ġpurch": 6259,
      "ĠEur": 6260,
      "Ġcontest": 6261,
      "itude": 6262,
      "Ġsecurity": 6263,
      "Ġstamps": 6264,
      "Ġdemanded": 6265,
      "zie": 6266,
      "Ġconvers": 6267,
      "Ġbrushes": 6268,
      "Ġscurried": 6269,
      "Ġdecides": 6270,
      "Ġdisc": 6271,
      "Ġpoking": 6272,
      "ĠIndia": 6273,
      "bies": 6274,
      "Ġusers": 6275,
      "rat": 6276,
      "Ġconsequ": 6277,
      "ĠX": 6278,
      "Ġ198": 6279,
      "agraph": 6280,
      "ĠLinda": 6281,
      "Ġspecies": 6282,
      "ĠStop": 6283,
      "Ġprunes": 6284,
      "Ġloose": 6285,
      "Ġphrase": 6286,
      "edding": 6287,
      "Ġlargest": 6288,
      "Ġactions": 6289,
      "!<": 6290,
      "Ġsinger": 6291,
      "Ġtwinkling": 6292,
      "Ġkicking": 6293,
      "âĢĶ": 6294,
      "Ġconcept": 6295,
      "bon": 6296,
      "Ġdolphins": 6297,
      "nces": 6298,
      "ĠMomo": 6299,
      "Ġsting": 6300,
      "Ġencourage": 6301,
      "Ġsilence": 6302,
      "Ġarr": 6303,
      "tiest": 6304,
      "Tw": 6305,
      "ĠSe": 6306,
      "Ġprettiest": 6307,
      "Ġpassing": 6308,
      "Ġruin": 6309,
      "ĠTe": 6310,
      "iple": 6311,
      "Ġopening": 6312,
      "Ġbabies": 6313,
      "Ġstudent": 6314,
      "Ġbouncy": 6315,
      "ĠPr": 6316,
      "Ġreaching": 6317,
      "Ġwrites": 6318,
      "Ġstrike": 6319,
      "Ġsoaked": 6320,
      "uctantly": 6321,
      "Ġsources": 6322,
      "Ġfunction": 6323,
      "Ġgoodnight": 6324,
      "Ġsentences": 6325,
      "Ġparagraph": 6326,
      "Ġfrozen": 6327,
      "Ġfreed": 6328,
      "rench": 6329,
      "Ġhorns": 6330,
      "Ġcomplex": 6331,
      "pr": 6332,
      "Ġbuckets": 6333,
      "ora": 6334,
      "Ġbarely": 6335,
      "Ġdent": 6336,
      "Ġgreet": 6337,
      "Ġheav": 6338,
      "icky": 6339,
      "Ġparked": 6340,
      "Ġclaps": 6341,
      "ulture": 6342,
      "vest": 6343,
      "Ah": 6344,
      "ĠSun": 6345,
      "Ġexha": 6346,
      "Ġtar": 6347,
      "Ġensure": 6348,
      "Ġrecorded": 6349,
      "ĠLuke": 6350,
      "Ġacted": 6351,
      "Ġgazed": 6352,
      "Ġhowever": 6353,
      "mosp": 6354,
      "ĠAfterwards": 6355,
      "Ġadv": 6356,
      "Ġpatience": 6357,
      "Ġdelivery": 6358,
      "Ġguys": 6359,
      "Ġresearch": 6360,
      "ops": 6361,
      "thank": 6362,
      "Ġunf": 6363,
      "Ġactivity": 6364,
      "Ġdetail": 6365,
      "Ġsweeties": 6366,
      "Ġstole": 6367,
      "Ġtruly": 6368,
      "ropri": 6369,
      "Ġribbons": 6370,
      "Ġdragons": 6371,
      "Ġworkers": 6372,
      "itions": 6373,
      "Ġvariety": 6374,
      "ilities": 6375,
      "Ġurged": 6376,
      "Ġreplaced": 6377,
      "Ġge": 6378,
      "ĠHoppy": 6379,
      "Ġremote": 6380,
      "ĠKayla": 6381,
      "verb": 6382,
      "Ġoutf": 6383,
      "Ġlocal": 6384,
      "ĠMo": 6385,
      "Ġpurred": 6386,
      "Ġspit": 6387,
      "Ġdrives": 6388,
      "Ġmittens": 6389,
      "Ġguns": 6390,
      "Ġapplauded": 6391,
      "Ġvowed": 6392,
      "Ġcurtains": 6393,
      "Ġself": 6394,
      "oci": 6395,
      "Ġbeard": 6396,
      "Ġeffective": 6397,
      "oration": 6398,
      "Ġmodels": 6399,
      "Ġatmosp": 6400,
      "lection": 6401,
      "Ġphotos": 6402,
      "irts": 6403,
      "Ġdarkness": 6404,
      "Suggest": 6405,
      "Ġhomework": 6406,
      "Ġdeal": 6407,
      "ute": 6408,
      "Ġinfl": 6409,
      "Ġtransport": 6410,
      "ĠPo": 6411,
      "Ġrocking": 6412,
      "Ġchewing": 6413,
      "Ġfaced": 6414,
      "ĠAf": 6415,
      "Ġaddress": 6416,
      "Ġtickle": 6417,
      "Today": 6418,
      "Ġshelves": 6419,
      "Ġtotal": 6420,
      "eah": 6421,
      "ners": 6422,
      "Ġwound": 6423,
      "Ġslim": 6424,
      "Ġcatches": 6425,
      "ata": 6426,
      "Ġcompletely": 6427,
      "ength": 6428,
      "Which": 6429,
      "Ġden": 6430,
      "Ġpouring": 6431,
      "Ġaudience": 6432,
      "Ġrubbing": 6433,
      "Ġinviting": 6434,
      "ribut": 6435,
      "Ġliqu": 6436,
      "Ġpaintings": 6437,
      "Ġartificial": 6438,
      "ĠYes": 6439,
      "ĠLizzy": 6440,
      "arter": 6441,
      "ĠJohnson": 6442,
      "Ġcrumb": 6443,
      "Ġbalanced": 6444,
      "Ġrout": 6445,
      "Ġreluctantly": 6446,
      "ĠJenna": 6447,
      "Ġpebbles": 6448,
      "Uh": 6449,
      "ton": 6450,
      "Ġconsequences": 6451,
      "eezing": 6452,
      "Ġblink": 6453,
      "Somet": 6454,
      "Ġtarget": 6455,
      "Ġcupc": 6456,
      "Remember": 6457,
      "Ġusual": 6458,
      "ĠMatt": 6459,
      "Ġdragged": 6460,
      "Just": 6461,
      "Ġattack": 6462,
      "care": 6463,
      "mat": 6464,
      "Ġmarketing": 6465,
      "Ġroads": 6466,
      "Class": 6467,
      "onse": 6468,
      "Ġwedding": 6469,
      "ĠMany": 6470,
      "Ġadding": 6471,
      "ĠEurope": 6472,
      "ropriate": 6473,
      "Ġfirm": 6474,
      "Ġbehavior": 6475,
      "vide": 6476,
      "erman": 6477,
      "Ġphysical": 6478,
      "Ġstruggle": 6479,
      "Ġrocked": 6480,
      "iod": 6481,
      "Ġstaring": 6482,
      "ĠJac": 6483,
      "rap": 6484,
      "Ġscreaming": 6485,
      "Ġsnail": 6486,
      "ĠDolly": 6487,
      "Ġobserved": 6488,
      "Ġguest": 6489,
      "ĠWar": 6490,
      "?<": 6491,
      "Ġcash": 6492,
      "isten": 6493,
      "ilar": 6494,
      "dri": 6495,
      "Ġti": 6496,
      "erson": 6497,
      "iled": 6498,
      "ĠJu": 6499,
      "back": 6500,
      "ĠPrin": 6501,
      "Ġfigured": 6502,
      "Ġseven": 6503,
      "Ġremoved": 6504,
      "Ġability": 6505,
      "Ġemail": 6506,
      "Ġbalancing": 6507,
      "esome": 6508,
      "Ġroaring": 6509,
      "ĊĠĠĠĠĠĠĠ": 6510,
      "Ġmelting": 6511,
      "Ġshivered": 6512,
      "Ġbravery": 6513,
      "Ġsafer": 6514,
      "ĠJon": 6515,
      "Ġbottles": 6516,
      "Ġevents": 6517,
      "immer": 6518,
      "ĠAlways": 6519,
      "Ġhonk": 6520,
      "Ġoffic": 6521,
      "ads": 6522,
      "Ġlibrarian": 6523,
      "Ġheel": 6524,
      "yan": 6525,
      "ĠSuzie": 6526,
      "Ġgenerate": 6527,
      "Ġhugging": 6528,
      "Ġrecipe": 6529,
      "Ġvideos": 6530,
      "Ġrelation": 6531,
      "ĠâĢĺ": 6532,
      "Ġinterested": 6533,
      "Ġconsider": 6534,
      "Ġexhausted": 6535,
      "Ġorganizing": 6536,
      "Ġcho": 6537,
      "Ġtowels": 6538,
      "Ġresponse": 6539,
      "Ġdared": 6540,
      "Ġawesome": 6541,
      "Ġquality": 6542,
      "Ġarrive": 6543,
      "Ġsway": 6544,
      "Ġcott": 6545,
      "Ġchases": 6546,
      "Ġtheirs": 6547,
      "iles": 6548,
      "Ġrule": 6549,
      "Ġstaying": 6550,
      "asm": 6551,
      "Ġshined": 6552,
      "Ġrelated": 6553,
      "Ġtraveled": 6554,
      "Ġren": 6555,
      "ĠMick": 6556,
      "Ġmatched": 6557,
      "ĠTwo": 6558,
      "Ġcurly": 6559,
      "Ġcenter": 6560,
      "Ġworker": 6561,
      "Ġhoriz": 6562,
      "Ġflags": 6563,
      "Ġaverage": 6564,
      "Ġrelief": 6565,
      "uri": 6566,
      "apt": 6567,
      "ording": 6568,
      "Ġmarked": 6569,
      "Ġsausages": 6570,
      "Ġbeginning": 6571,
      "Ġpoliceman": 6572,
      "Ġresting": 6573,
      "Ġmarkers": 6574,
      "Ġreveal": 6575,
      "anes": 6576,
      "ĠĠĠĠĠĠĠĠ": 6577,
      "Ġblooming": 6578,
      "ĠFollow": 6579,
      "ĠSlow": 6580,
      "Ġlied": 6581,
      "Ġrainbows": 6582,
      "Ġdesert": 6583,
      "ĠQuack": 6584,
      "Ġcheering": 6585,
      "Ġarguing": 6586,
      "hell": 6587,
      "Ġzookeeper": 6588,
      "Ġradishes": 6589,
      "Ġhi": 6590,
      "Ġprotecting": 6591,
      "ĠPinky": 6592,
      "ĠFox": 6593,
      "ĠGet": 6594,
      "Ġni": 6595,
      "Ġ17": 6596,
      "jamas": 6597,
      "Ġearn": 6598,
      "ĠDuring": 6599,
      "hello": 6600,
      "Ġsweets": 6601,
      "ĠAfric": 6602,
      "Ġeconomic": 6603,
      "ĠJones": 6604,
      "atform": 6605,
      "Ġslimy": 6606,
      "ĠMel": 6607,
      "Qu": 6608,
      "Ġappropriate": 6609,
      "ified": 6610,
      "ĠJacob": 6611,
      "Ġsighs": 6612,
      "Ġmarriage": 6613,
      "eds": 6614,
      "Ġrising": 6615,
      "Ġatmosphere": 6616,
      "igning": 6617,
      "Ġbusinesses": 6618,
      "cuse": 6619,
      "utions": 6620,
      "Ġpatted": 6621,
      "Ġdetect": 6622,
      "Ġcubes": 6623,
      "Classify": 6624,
      "ĠFriend": 6625,
      "ĠCindy": 6626,
      "Ġpacking": 6627,
      "Ġthroughout": 6628,
      "Ġliquid": 6629,
      "Ġdiv": 6630,
      "Ġmemb": 6631,
      "angled": 6632,
      "Ġmembers": 6633,
      "Ġpurpose": 6634,
      "Ġworries": 6635,
      "Ġchanging": 6636,
      "Ġmatching": 6637,
      "50": 6638,
      "cher": 6639,
      "you": 6640,
      "volution": 6641,
      "Ġcy": 6642,
      "lling": 6643,
      "Ġventured": 6644,
      "Ġallows": 6645,
      "Ġsigned": 6646,
      "Ġrescued": 6647,
      "Ġgle": 6648,
      "Ì¦": 6649,
      "Ġsticking": 6650,
      "Ġcuts": 6651,
      "Ġpretends": 6652,
      "Ġgrowling": 6653,
      "Ġlevels": 6654,
      "ppers": 6655,
      "Ġapplications": 6656,
      "gress": 6657,
      "Ġpaddled": 6658,
      "aging": 6659,
      "Ġachieved": 6660,
      "Ġscen": 6661,
      "Ġadvant": 6662,
      "Ġstartled": 6663,
      "Ġill": 6664,
      "Ġspraying": 6665,
      "Ġfart": 6666,
      "Ġavoid": 6667,
      "Ġwaiter": 6668,
      "ĠWater": 6669,
      "acy": 6670,
      "Ì¦Ì¦": 6671,
      "Ġgroceries": 6672,
      "Ġsignific": 6673,
      "culate": 6674,
      "mas": 6675,
      "Ġteams": 6676,
      "ral": 6677,
      "Ġspike": 6678,
      "Ġdescrib": 6679,
      "Ġcountryside": 6680,
      "Ġslap": 6681,
      "Ġcopy": 6682,
      "Ġwid": 6683,
      "Ġmane": 6684,
      "Excuse": 6685,
      "Ġdefin": 6686,
      "Ġroots": 6687,
      "Ġsuitc": 6688,
      "Ġlearns": 6689,
      "Ġsnugg": 6690,
      "xture": 6691,
      "Ġdusty": 6692,
      "Ġreply": 6693,
      "izzie": 6694,
      "ĠBird": 6695,
      "ĠPipp": 6696,
      "Ġseems": 6697,
      "Ġnon": 6698,
      "yd": 6699,
      "Ã©": 6700,
      "Ġregretted": 6701,
      "Ġkneeled": 6702,
      "marize": 6703,
      "ĠSim": 6704,
      "ĠLi": 6705,
      "Ġpencils": 6706,
      "Ġrespond": 6707,
      "Ġwee": 6708,
      "Ġchuck": 6709,
      "Ġseries": 6710,
      "nds": 6711,
      "Ġspecific": 6712,
      "Ġbloomed": 6713,
      "Ġyesterday": 6714,
      "Ġflight": 6715,
      "Ġprincesses": 6716,
      "Ġspeaking": 6717,
      "dies": 6718,
      "ĠFe": 6719,
      "Ġallowing": 6720,
      "Ġtrembling": 6721,
      "ewable": 6722,
      "Ġbey": 6723,
      "ĠJessica": 6724,
      "lings": 6725,
      "isies": 6726,
      "ĠLena": 6727,
      "Ġscales": 6728,
      "Ġinsp": 6729,
      "Ġscience": 6730,
      "Ġprayer": 6731,
      "Ġnecess": 6732,
      "Ġtimer": 6733,
      "Ġbeyond": 6734,
      "Ġwires": 6735,
      "Ġpout": 6736,
      "idence": 6737,
      "Ġdirections": 6738,
      "Yeah": 6739,
      "ounced": 6740,
      "Ġplatform": 6741,
      "ĠSouth": 6742,
      "Ġthro": 6743,
      "Ġprocessing": 6744,
      "Ġhorizon": 6745,
      "Ġtwinkle": 6746,
      "Provide": 6747,
      "ĠSqu": 6748,
      "elle": 6749,
      "ably": 6750,
      "ael": 6751,
      "ancial": 6752,
      "ĠEnglish": 6753,
      "Ġvarious": 6754,
      "ĠWatch": 6755,
      "Ġvalued": 6756,
      "Ġdaisies": 6757,
      "ino": 6758,
      "Ġpajamas": 6759,
      "Ġforce": 6760,
      "Ġrate": 6761,
      "nger": 6762,
      "ĠTara": 6763,
      "Ġdescribe": 6764,
      "ĠKeep": 6765,
      "Ġranger": 6766,
      "Ġstare": 6767,
      "Ġyounger": 6768,
      "Ġbelly": 6769,
      "Ġpoems": 6770,
      "Ġmonths": 6771,
      "ossible": 6772,
      "ĠYork": 6773,
      "ĠRobert": 6774,
      "ĠLizzie": 6775,
      "sis": 6776,
      "Ġreason": 6777,
      "Ġchoices": 6778,
      "ashing": 6779,
      "ĠJulia": 6780,
      "Ġlocated": 6781,
      "Ġprim": 6782,
      "ference": 6783,
      "Ġactive": 6784,
      "Ġwasted": 6785,
      "Ġartist": 6786,
      "Ġpots": 6787,
      "Ġlanguages": 6788,
      "ĠCal": 6789,
      "vey": 6790,
      "Ġfolding": 6791,
      "ĠMich": 6792,
      "Sometimes": 6793,
      "Ġfilling": 6794,
      "aged": 6795,
      "ĠPut": 6796,
      "Ġlap": 6797,
      "Ġfault": 6798,
      "Ġparties": 6799,
      "Ġdamage": 6800,
      "ĠChristmas": 6801,
      "Ġprovides": 6802,
      "Ġlamb": 6803,
      "Ġdelivered": 6804,
      "Ġkites": 6805,
      "ĠRock": 6806,
      "ĠSlowly": 6807,
      "Le": 6808,
      "Ġflames": 6809,
      "Ġstorekeeper": 6810,
      "Ġbuying": 6811,
      "Ġacting": 6812,
      "Ġstern": 6813,
      "oline": 6814,
      "Ġga": 6815,
      "igi": 6816,
      "Ġgovernment": 6817,
      "Sum": 6818,
      "Ro": 6819,
      "abel": 6820,
      "rance": 6821,
      "sa": 6822,
      "Ġconnected": 6823,
      "Ġripe": 6824,
      "Ġtables": 6825,
      "Ġfairies": 6826,
      "fall": 6827,
      "Ġnum": 6828,
      "Ġlogs": 6829,
      "Ġdetermination": 6830,
      "hile": 6831,
      "Ġpolit": 6832,
      "ental": 6833,
      "Ġthroat": 6834,
      "Ġpolishing": 6835,
      "Ġtallest": 6836,
      "Ġvanish": 6837,
      "Ġterm": 6838,
      "Ġeffects": 6839,
      "Ġplanning": 6840,
      "ĠLarry": 6841,
      "Ġeverybody": 6842,
      "Ġinvolves": 6843,
      "Ġunited": 6844,
      "Ġpenguins": 6845,
      "Ġtitle": 6846,
      "Ġcosts": 6847,
      "Ġmixture": 6848,
      "Ġhealed": 6849,
      "Ġsquealed": 6850,
      "Ġseesaw": 6851,
      "Ġteaches": 6852,
      "ĠWithout": 6853,
      "Ġsnakes": 6854,
      "Ġrecording": 6855,
      "Ġquacked": 6856,
      "Ġafford": 6857,
      "Some": 6858,
      "Ġrecommended": 6859,
      "Ġconfl": 6860,
      "ĠEnjoy": 6861,
      "Cl": 6862,
      "aren": 6863,
      "Ġcrabs": 6864,
      "Ġknights": 6865,
      "Ġlollipops": 6866,
      "Ġcrumbs": 6867,
      "Ġagrees": 6868,
      "oys": 6869,
      "ĠBess": 6870,
      "Ġdigital": 6871,
      "Ġinteract": 6872,
      "boo": 6873,
      "Ġ11": 6874,
      "fer": 6875,
      "Ġappl": 6876,
      "ĠNorth": 6877,
      "Ġcautiously": 6878,
      "Ġhelmets": 6879,
      "araway": 6880,
      "ended": 6881,
      "Ġtractor": 6882,
      "Ġweeke": 6883,
      "Ġpolished": 6884,
      "Ġgrowth": 6885,
      "ĠGerman": 6886,
      "Ġwink": 6887,
      "Ġcovers": 6888,
      "Ġbars": 6889,
      "Ġfaraway": 6890,
      "Ġfinal": 6891,
      "Ġcoup": 6892,
      "Ġminerals": 6893,
      "itted": 6894,
      "Ġroses": 6895,
      "Ġdipped": 6896,
      "Ġcarbon": 6897,
      "Ġaccount": 6898,
      "Ġpastries": 6899,
      "pen": 6900,
      "iences": 6901,
      "Ġscru": 6902,
      "Ġpeeking": 6903,
      "Ġseconds": 6904,
      "Ġinsects": 6905,
      "Ġtrips": 6906,
      "Ġcracked": 6907,
      "apan": 6908,
      "Ġcous": 6909,
      "ru": 6910,
      "Ġcrackers": 6911,
      "Ġdentist": 6912,
      "ĠMickey": 6913,
      "Ġfamilies": 6914,
      "Ġrestored": 6915,
      "ounce": 6916,
      "ĠDoggy": 6917,
      "ĠLeave": 6918,
      "Ġassoci": 6919,
      "ĠDr": 6920,
      "Ġcities": 6921,
      "Ġboom": 6922,
      "Ġpleasure": 6923,
      "ada": 6924,
      "Ġimages": 6925,
      "ĠNick": 6926,
      "Ġcough": 6927,
      "Ġwandering": 6928,
      "Ġprob": 6929,
      "Ġcelebration": 6930,
      "Ġrings": 6931,
      "Ġtwin": 6932,
      "Ġmer": 6933,
      "Ġcreativity": 6934,
      "inct": 6935,
      "Ġborn": 6936,
      "Ġoutput": 6937,
      "Ġbaker": 6938,
      "ĠAmerica": 6939,
      "Ġsweat": 6940,
      "iqu": 6941,
      "we": 6942,
      "Ġrivers": 6943,
      "Ġimpossible": 6944,
      "ĠOther": 6945,
      "Ġlined": 6946,
      "uthor": 6947,
      "icate": 6948,
      "Ġchuckled": 6949,
      "Ġforehead": 6950,
      "Ġblows": 6951,
      "Ġcapital": 6952,
      "ĠBye": 6953,
      "Ġreport": 6954,
      "Ġpand": 6955,
      "Ġswirl": 6956,
      "Ġpassage": 6957,
      "Ġwins": 6958,
      "Ġculture": 6959,
      "Ġfocused": 6960,
      "arling": 6961,
      "ĠHappy": 6962,
      "Ġrobb": 6963,
      "Ġbeads": 6964,
      "ĠDays": 6965,
      "Ġsimilar": 6966,
      "Ġmeow": 6967,
      "Ġpredict": 6968,
      "Ġdarker": 6969,
      "Ġrubs": 6970,
      "pril": 6971,
      "Ġincludes": 6972,
      "Run": 6973,
      "Ġmes": 6974,
      "ĠGigi": 6975,
      "Ġwinked": 6976,
      "Ġdefe": 6977,
      "Ġgaze": 6978,
      "Ġnect": 6979,
      "Ġnecessary": 6980,
      "Ġnectar": 6981,
      "bit": 6982,
      "ulated": 6983,
      "Ġarray": 6984,
      "Ġrevers": 6985,
      "ĠJazz": 6986,
      "for": 6987,
      "Ġneg": 6988,
      "Ġlistens": 6989,
      "ĠSparky": 6990,
      "por": 6991,
      "aming": 6992,
      "Ġoptim": 6993,
      "Ġmultiple": 6994,
      "Ġfuzzy": 6995,
      "Ġbas": 6996,
      "ĠCra": 6997,
      "Ġcommunication": 6998,
      "ĠMira": 6999,
      "Ġcloses": 7000,
      "Ġaffect": 7001,
      "Ġplans": 7002,
      "oke": 7003,
      "Ġsomebody": 7004,
      "Ġcolored": 7005,
      "Ġfluttered": 7006,
      "Ġhour": 7007,
      "Ġsplashes": 7008,
      "ĠExc": 7009,
      "bbly": 7010,
      "unched": 7011,
      "Ġbacked": 7012,
      "Ġsib": 7013,
      "ague": 7014,
      "Ġstates": 7015,
      "Ġswooped": 7016,
      "Ġrisks": 7017,
      "Construct": 7018,
      "Ġbumpy": 7019,
      "Ġaccur": 7020,
      "ĠNothing": 7021,
      "Tell": 7022,
      "Ġareas": 7023,
      "ĠSophia": 7024,
      "Ġinvent": 7025,
      "Ġrolls": 7026,
      "Ġsens": 7027,
      "Ġpastels": 7028,
      "ĠBeing": 7029,
      "icked": 7030,
      "Ġbatteries": 7031,
      "ĠSorry": 7032,
      "ĠAbbie": 7033,
      "Ġtopic": 7034,
      "Ġentrance": 7035,
      "Ġsnowballs": 7036,
      "ddled": 7037,
      "Ġnaps": 7038,
      "Ġslam": 7039,
      "Ġmisses": 7040,
      "ĠJay": 7041,
      "Ġwhether": 7042,
      "ĠMan": 7043,
      "Ġwiggled": 7044,
      "ĠBra": 7045,
      "Ġfroze": 7046,
      "Ġmushrooms": 7047,
      "mber": 7048,
      "iki": 7049,
      "Ġfever": 7050,
      "Ġitchy": 7051,
      "rit": 7052,
      "Ġsuitcase": 7053,
      "Ġfinancial": 7054,
      "ampion": 7055,
      "Then": 7056,
      "Ġexist": 7057,
      "Ġmesmer": 7058,
      "ustain": 7059,
      "olen": 7060,
      "ĠNob": 7061,
      "Ġ16": 7062,
      "Ġcomplaining": 7063,
      "Ġ197": 7064,
      "Ġoccur": 7065,
      "umm": 7066,
      "Ġreads": 7067,
      "Ġvehicles": 7068,
      "ĠTake": 7069,
      "Ġawake": 7070,
      "ai": 7071,
      "Ġtipt": 7072,
      "ĠEmmy": 7073,
      "Ġhearing": 7074,
      "ĠSque": 7075,
      "Ġinflu": 7076,
      "anced": 7077,
      "Ġcashier": 7078,
      "Ġpiggy": 7079,
      "ĠPandy": 7080,
      "Ġglasses": 7081,
      "Bad": 7082,
      "Ġaccomplishment": 7083,
      "arr": 7084,
      "ĠMin": 7085,
      "step": 7086,
      "Ed": 7087,
      "ĠQue": 7088,
      "Ġpedals": 7089,
      "Ġwilling": 7090,
      "lement": 7091,
      "Ġmasks": 7092,
      "Ġhealthcare": 7093,
      "boat": 7094,
      "Ġlun": 7095,
      "idered": 7096,
      "Ġseparated": 7097,
      "Ġrele": 7098,
      "Ġafterwards": 7099,
      "ĠEverybody": 7100,
      "ĠEd": 7101,
      "Ġaware": 7102,
      "Ġcompanies": 7103,
      "Ġoutfit": 7104,
      "istic": 7105,
      "Ġburst": 7106,
      "lets": 7107,
      "Ġtesting": 7108,
      "Ġpriv": 7109,
      "Ġastron": 7110,
      "tuce": 7111,
      "ouch": 7112,
      "Ġsmarter": 7113,
      "Ġdise": 7114,
      "Ġstolen": 7115,
      "imate": 7116,
      "De": 7117,
      "Ġknees": 7118,
      "Ġsneaky": 7119,
      "ĠThanks": 7120,
      "Ġperiod": 7121,
      "Design": 7122,
      "ĠAlong": 7123,
      "Ġnoon": 7124,
      "Ġbud": 7125,
      "Ġweekend": 7126,
      "Ġfreedom": 7127,
      "Ġsandcastles": 7128,
      "ĠLaura": 7129,
      "ĠStar": 7130,
      "Ġindeed": 7131,
      "ĠApril": 7132,
      "usion": 7133,
      "Ġglee": 7134,
      "ĠChris": 7135,
      "Ġrockets": 7136,
      "Ġprogress": 7137,
      "Ġcandies": 7138,
      "ĠPam": 7139,
      "atches": 7140,
      "Ġmeals": 7141,
      "band": 7142,
      "Ġwow": 7143,
      "ĠBuzzy": 7144,
      "ĠExcited": 7145,
      "Ġlung": 7146,
      "Ġpause": 7147,
      "ĠNational": 7148,
      "Ġpollution": 7149,
      "ĠSince": 7150,
      "Ġstays": 7151,
      "Ġtalented": 7152,
      "ĠPrincess": 7153,
      "Ġ30": 7154,
      "ĠMichael": 7155,
      "ĠUniversity": 7156,
      "?\",": 7157,
      "ĠOw": 7158,
      "Ġstands": 7159,
      "Ġinstrument": 7160,
      "ights": 7161,
      "jo": 7162,
      "prin": 7163,
      "Ġtweet": 7164,
      "Ġ196": 7165,
      "Make": 7166,
      "Ġcoloured": 7167,
      "Ġfarther": 7168,
      "Ġhoo": 7169,
      "Ġtricky": 7170,
      "Ġlength": 7171,
      "Ġlosing": 7172,
      "ĠOur": 7173,
      "Ġ100": 7174,
      "brush": 7175,
      "Ġbakery": 7176,
      "Ġdoc": 7177,
      "affes": 7178,
      "Ġlettuce": 7179,
      "Ġcompon": 7180,
      "Ġcentury": 7181,
      "ĠPlay": 7182,
      "Ġbowls": 7183,
      "Ġtangled": 7184,
      "Ġscra": 7185,
      "Ġpassen": 7186,
      "Ġwears": 7187,
      "Ġtraditional": 7188,
      "urry": 7189,
      "Ġneither": 7190,
      "Ġconsidered": 7191,
      "Ġindividual": 7192,
      "Summarize": 7193,
      "Ġonions": 7194,
      "Ġchoo": 7195,
      "Ġpaying": 7196,
      "Ġtickled": 7197,
      "aker": 7198,
      "ĠPen": 7199,
      "Ġessential": 7200,
      "Ġlighter": 7201,
      "Ġsurv": 7202,
      "Ġscaring": 7203,
      "Ġsled": 7204,
      "ĠRes": 7205,
      "based": 7206,
      "Ġ{": 7207,
      "ĠJapan": 7208,
      "Ġdevice": 7209,
      "Ġseashell": 7210,
      "Grandma": 7211,
      "Ġtricked": 7212,
      "Ġprogramming": 7213,
      "Ġwrist": 7214,
      "itches": 7215,
      "ĠAlthough": 7216,
      "Ġprinting": 7217,
      "Ġgiraffes": 7218,
      "Ġstem": 7219,
      "Ġshirts": 7220,
      "?'": 7221,
      "Ġrather": 7222,
      "Ġsalty": 7223,
      "Ġcheeks": 7224,
      "Ġhissed": 7225,
      "Ġjoking": 7226,
      "Ġhandful": 7227,
      "ĠApple": 7228,
      "issions": 7229,
      "ĠMaya": 7230,
      "lt": 7231,
      "Ġgram": 7232,
      "ification": 7233,
      "Ġvalues": 7234,
      "rip": 7235,
      "ships": 7236,
      "Ġsiblings": 7237,
      "order": 7238,
      "Ġheading": 7239,
      "Ġstress": 7240,
      "lo": 7241,
      "Ġdifferences": 7242,
      "Ġcreamy": 7243,
      "ĠStella": 7244,
      "Ġsobbed": 7245,
      "Ġsolutions": 7246,
      "Ġeducation": 7247,
      "Ġmethods": 7248,
      "Fine": 7249,
      "Ġcalmed": 7250,
      "Ġargument": 7251,
      "ĠSnugg": 7252,
      "omen": 7253,
      "Ġinternet": 7254,
      "ĠMikey": 7255,
      "Ġdecl": 7256,
      "eech": 7257,
      "ĠĊĠĠĠ": 7258,
      "illiam": 7259,
      "ĠRep": 7260,
      "Ġdrums": 7261,
      "Ġmagnets": 7262,
      "Ġreview": 7263,
      "uary": 7264,
      "ĠBee": 7265,
      "Ġgracefully": 7266,
      "Ġhesitated": 7267,
      "ĠOlive": 7268,
      "Take": 7269,
      "Ġpaddle": 7270,
      "Ġalgorithms": 7271,
      "ĠPark": 7272,
      "Ġsolar": 7273,
      ")<": 7274,
      "Ġbumps": 7275,
      "Time": 7276,
      "Ġdarling": 7277,
      "choo": 7278,
      "ĠRyan": 7279,
      "ĠFar": 7280,
      "Ġtigers": 7281,
      "Ġconflict": 7282,
      "Tr": 7283,
      "Ġdiscussed": 7284,
      "ĠFinn": 7285,
      "ĠRobby": 7286,
      "Ġmuscle": 7287,
      "ures": 7288,
      "Ġscarves": 7289,
      "Ġtransportation": 7290,
      "elia": 7291,
      "ift": 7292,
      "Ġleads": 7293,
      "Ġrenewable": 7294,
      "Ġflapping": 7295,
      "Ġtravelled": 7296,
      "Ġech": 7297,
      "ĠGreen": 7298,
      "Ġswept": 7299,
      "Ġindustry": 7300,
      "Ġslices": 7301,
      "ĠGranny": 7302,
      "Ġgranted": 7303,
      "ĠMilo": 7304,
      "Ġinte": 7305,
      "Ġgross": 7306,
      "Ġsty": 7307,
      "11": 7308,
      "imately": 7309,
      "def": 7310,
      "ĠFrance": 7311,
      "Ġclowns": 7312,
      "Ġweeping": 7313,
      "ees": 7314,
      "Ġsect": 7315,
      "Ġdeserve": 7316,
      "gg": 7317,
      "Ġexperiences": 7318,
      "Ġmember": 7319,
      "ĠSnuggles": 7320,
      "Ġsav": 7321,
      "iece": 7322,
      "Ġbadge": 7323,
      "Ġstreets": 7324,
      "Ġmast": 7325,
      "reme": 7326,
      "Ġcausing": 7327,
      "ĠFrench": 7328,
      "Those": 7329,
      "ĠTess": 7330,
      "Ġtwice": 7331,
      "Ġfirefighters": 7332,
      "Ġfears": 7333,
      "Ġyourselves": 7334,
      "Ġencourag": 7335,
      "Ġcomplained": 7336,
      "Ġcans": 7337,
      "12": 7338,
      "Ġpeppers": 7339,
      "ĠCom": 7340,
      "Ġcupcakes": 7341,
      "word": 7342,
      "Ġchip": 7343,
      "Ġanalysis": 7344,
      "Ġnine": 7345,
      "artha": 7346,
      "Whe": 7347,
      "lished": 7348,
      "Ġcelebrating": 7349,
      "Alice": 7350,
      "Ġtiss": 7351,
      "Ġexplorers": 7352,
      "Ġlif": 7353,
      "ĠZip": 7354,
      "ĠFu": 7355,
      "ĠIndian": 7356,
      "Ġcouple": 7357,
      "Ġraind": 7358,
      "Ġsnuck": 7359,
      "Ġlapt": 7360,
      "Ġgreater": 7361,
      "Ġsquares": 7362,
      "Ġteased": 7363,
      "Ġwarming": 7364,
      "Ġmarker": 7365,
      "Ġkicks": 7366,
      "ĠFire": 7367,
      "Edit": 7368,
      "arrow": 7369,
      "uals": 7370,
      "Ġpeacefully": 7371,
      "Ġwipes": 7372,
      "Ġmax": 7373,
      "Our": 7374,
      "sp": 7375,
      "Ġ14": 7376,
      "Ġfluttering": 7377,
      "iques": 7378,
      "Â°": 7379,
      "Ġthorn": 7380,
      "Ġelectricity": 7381,
      "ĠCity": 7382,
      "Ġrainco": 7383,
      "cuss": 7384,
      "Ġsubject": 7385,
      "Three": 7386,
      "Ġrewarded": 7387,
      "Ġtransform": 7388,
      "Ġbodies": 7389,
      "othing": 7390,
      "PT": 7391,
      "pted": 7392,
      "ico": 7393,
      "Shh": 7394,
      "Ġbeloved": 7395,
      "over": 7396,
      "Ġbedtime": 7397,
      "Ġseeker": 7398,
      "Ġdots": 7399,
      "Ġannoy": 7400,
      "rest": 7401,
      "Ġstrateg": 7402,
      "irtual": 7403,
      "Ġconversation": 7404,
      "ĠNe": 7405,
      "Ġwrapping": 7406,
      "Ġjackets": 7407,
      "ndpare": 7408,
      "Ġsurroundings": 7409,
      "For": 7410,
      "Ġspeech": 7411,
      "ĠUnder": 7412,
      "itched": 7413,
      "rain": 7414,
      "Ġstroked": 7415,
      "ĠKaren": 7416,
      "Ġmanagement": 7417,
      "Ġassociated": 7418,
      "ĠQueen": 7419,
      "Ġmedical": 7420,
      "aired": 7421,
      "Ġgems": 7422,
      "Ġoffers": 7423,
      "Ġdeg": 7424,
      "Ġhider": 7425,
      "immering": 7426,
      "Ġconst": 7427,
      "ĠPhil": 7428,
      "Ġauthor": 7429,
      "atic": 7430,
      "Ġmaintain": 7431,
      "ustral": 7432,
      "Ġbasement": 7433,
      "ĠBack": 7434,
      "umbling": 7435,
      "arning": 7436,
      "Ġrefer": 7437,
      "Ġsnatched": 7438,
      "Next": 7439,
      "ĠGu": 7440,
      "ĠAbi": 7441,
      "',": 7442,
      "Ġsales": 7443,
      "Ġrumble": 7444,
      "Ġhallway": 7445,
      "Ġperformed": 7446,
      "Ġlarger": 7447,
      "Ġbet": 7448,
      "storm": 7449,
      "alph": 7450,
      "ulations": 7451,
      "ula": 7452,
      "vation": 7453,
      "Ġsmiley": 7454,
      "rops": 7455,
      "Ġknocks": 7456,
      "ĠInc": 7457,
      "Ġscrubbed": 7458,
      "ĠMabel": 7459,
      "Ġdiving": 7460,
      "Ġemissions": 7461,
      "Ġvanilla": 7462,
      "Ġsale": 7463,
      "osen": 7464,
      "hog": 7465,
      "Ġgrandpare": 7466,
      "Ġsilent": 7467,
      "Ġoppos": 7468,
      "ĠAnt": 7469,
      "Great": 7470,
      "Ġtend": 7471,
      "amm": 7472,
      "Ġchosen": 7473,
      "Ġpuppies": 7474,
      "anged": 7475,
      "Ġaddition": 7476,
      "Ġfamiliar": 7477,
      "ongrat": 7478,
      "ĠMartha": 7479,
      "sty": 7480,
      "Ġprop": 7481,
      "Ġcomputers": 7482,
      "</": 7483,
      "ĠUse": 7484,
      "Ġdollars": 7485,
      "Ġtraining": 7486,
      "Ġcuddly": 7487,
      "Ġdrifted": 7488,
      "Ġvibr": 7489,
      "Ġapproach": 7490,
      "Ġbehaved": 7491,
      "ĠWilliam": 7492,
      "Ġslower": 7493,
      "Ġflavors": 7494,
      "rey": 7495,
      "rease": 7496,
      "Ġnotes": 7497,
      "str": 7498,
      "ĠChina": 7499,
      "ĠUp": 7500,
      "Two": 7501,
      "rigued": 7502,
      "ĠDespite": 7503,
      "Ġinstruments": 7504,
      "irus": 7505,
      "Ġinj": 7506,
      "Ġruining": 7507,
      "Ġthoughts": 7508,
      "Ġpurchase": 7509,
      "cope": 7510,
      "ĠMarie": 7511,
      "Ġexperien": 7512,
      "Ġexch": 7513,
      "Ġneedles": 7514,
      "ĠOff": 7515,
      "Ġaren": 7516,
      "Ġwhose": 7517,
      "Ġtreehouse": 7518,
      "Ġdollhouse": 7519,
      "Ġuna": 7520,
      "ĠBinky": 7521,
      "Ġcreations": 7522,
      "Ġwidened": 7523,
      "oni": 7524,
      "Ġrepaired": 7525,
      "Ġdatab": 7526,
      "roduct": 7527,
      "Ġrusty": 7528,
      "ius": 7529,
      "Ġstored": 7530,
      "Ġscratches": 7531,
      "Lucy": 7532,
      "bbling": 7533,
      "Have": 7534,
      "Ġgrassy": 7535,
      "ifying": 7536,
      "undred": 7537,
      "Ġequation": 7538,
      "oll": 7539,
      "Ġyells": 7540,
      "Ġgroups": 7541,
      "Ġsending": 7542,
      "ĠJanie": 7543,
      "ĠAng": 7544,
      "ĠRemember": 7545,
      "Ġterms": 7546,
      "Ġarrows": 7547,
      "Ġbeg": 7548,
      "Ġstain": 7549,
      "Ġcraft": 7550,
      "ege": 7551,
      "Ġabs": 7552,
      "Ġshrinking": 7553,
      "Ġprofessional": 7554,
      "Ġhides": 7555,
      "col": 7556,
      "Ġtechnolog": 7557,
      "Ġsustain": 7558,
      "Ġshaped": 7559,
      "Ġfeedback": 7560,
      "Ġposter": 7561,
      "ĠKiki": 7562,
      "ograph": 7563,
      "ntil": 7564,
      "Ġspong": 7565,
      "Ġexamples": 7566,
      "ĠTime": 7567,
      "ĠMake": 7568,
      "ĠJacky": 7569,
      "iasm": 7570,
      "Ġdescription": 7571,
      "ĠRover": 7572,
      "umn": 7573,
      "lor": 7574,
      "Ġhesitant": 7575,
      "ĠRobbie": 7576,
      "Ġoverall": 7577,
      "Ġpromises": 7578,
      "Ġsets": 7579,
      "Ġastronaut": 7580,
      "Ph": 7581,
      "Ġblocking": 7582,
      "ĠBrit": 7583,
      "Ġoptions": 7584,
      "yes": 7585,
      "ĠSat": 7586,
      "Ġencouraging": 7587,
      "ikes": 7588,
      "Ġalien": 7589,
      "Ġimagining": 7590,
      "ushing": 7591,
      "Ġsprinkled": 7592,
      "Ġreducing": 7593,
      "Ġoffering": 7594,
      "Ġdiet": 7595,
      "ĠPar": 7596,
      "rie": 7597,
      "Ġcorners": 7598,
      "ka": 7599,
      "Ġmob": 7600,
      "ĠAfrica": 7601,
      "Ġprocesses": 7602,
      "icip": 7603,
      "ĠSuper": 7604,
      "Ġsolving": 7605,
      "Ġissue": 7606,
      "Ġlaptop": 7607,
      "tion": 7608,
      "opes": 7609,
      "Ġchop": 7610,
      "ĠCol": 7611,
      "ishy": 7612,
      "ategy": 7613,
      "Ġcousin": 7614,
      "Ġshown": 7615,
      "Ġraindrops": 7616,
      "Ġenthusiasm": 7617,
      "Ġdecorating": 7618,
      "rough": 7619,
      "Ġbackwards": 7620,
      "Ġrustling": 7621,
      "Ġhitting": 7622,
      "Ġdate": 7623,
      "isc": 7624,
      "whe": 7625,
      "Ġtiptoed": 7626,
      "Ġwrink": 7627,
      "Ġproduction": 7628,
      "Ġswimsuit": 7629,
      "Ġheavier": 7630,
      "ĠSan": 7631,
      "Ġaside": 7632,
      "Ġencount": 7633,
      "Ġtapped": 7634,
      "ĠTam": 7635,
      "ening": 7636,
      "Ġcowb": 7637,
      "Ġrole": 7638,
      "aign": 7639,
      "Ġchallenges": 7640,
      "Ġrequested": 7641,
      "Ġtechniques": 7642,
      "found": 7643,
      "Ġfant": 7644,
      "ĠGreat": 7645,
      "ĠGoodbye": 7646,
      "Ġchefs": 7647,
      "urious": 7648,
      "Ġtouc": 7649,
      "ĠSqueaky": 7650,
      "Ġhus": 7651,
      "ĠStart": 7652,
      "ĠSimon": 7653,
      "ĠSadie": 7654,
      "Ġlessons": 7655,
      "Ġgrows": 7656,
      "ĠUntil": 7657,
      "Ġgrad": 7658,
      "iley": 7659,
      "Ġperforming": 7660,
      "ĠBluey": 7661,
      "18": 7662,
      "ĠLove": 7663,
      "Ġreflection": 7664,
      "Ġvers": 7665,
      "Ġscrewdri": 7666,
      "Ġexpression": 7667,
      "yth": 7668,
      "Dear": 7669,
      "child": 7670,
      "iency": 7671,
      "Ġspreading": 7672,
      "Ġtramp": 7673,
      "Ġreflect": 7674,
      "Ġforgiven": 7675,
      "Ġsteady": 7676,
      "Ġrobots": 7677,
      "Ġhedgehog": 7678,
      "Ġtissue": 7679,
      "Ġpound": 7680,
      "istics": 7681,
      "Ġstomped": 7682,
      "uf": 7683,
      "Ġunpacked": 7684,
      "Ar": 7685,
      "fire": 7686,
      "Ġsuffering": 7687,
      "ĠNobody": 7688,
      "Ġpans": 7689,
      "Ġfigures": 7690,
      "Ġlimes": 7691,
      "Ġtested": 7692,
      "Ġgrabbing": 7693,
      "mp": 7694,
      "Ġimm": 7695,
      "Ġpolar": 7696,
      "Ġsnowfl": 7697,
      "Ġdial": 7698,
      "Ġlikely": 7699,
      "Ġlongest": 7700,
      "Ew": 7701,
      "Ġfeast": 7702,
      "Jane": 7703,
      "Ġshops": 7704,
      "Ġstrategy": 7705,
      "Ġdreamt": 7706,
      "bow": 7707,
      "ĊĠĠĠĠ": 7708,
      "Ġpointy": 7709,
      "____": 7710,
      "Ġstung": 7711,
      "Ġtips": 7712,
      "otten": 7713,
      "ĠAustral": 7714,
      "Ġnegative": 7715,
      "Ġscored": 7716,
      "Ġsailboat": 7717,
      "iforn": 7718,
      "Ġdrivers": 7719,
      "ĠFlop": 7720,
      "cent": 7721,
      "ĠPer": 7722,
      "Ġdie": 7723,
      "Ġstool": 7724,
      "Ġplain": 7725,
      "ĠBow": 7726,
      "ĠThose": 7727,
      "Ġneare": 7728,
      "Ġpens": 7729,
      "Ġache": 7730,
      "Ġwarmer": 7731,
      "Ġbattle": 7732,
      ").<": 7733,
      "ĠMaddie": 7734,
      "Yummy": 7735,
      "Ġpouted": 7736,
      "Ġ194": 7737,
      "Ġannounced": 7738,
      "Ġattem": 7739,
      "iration": 7740,
      "Ġappreciation": 7741,
      "Ġtodd": 7742,
      "ĠMart": 7743,
      "Ġarch": 7744,
      "ĠCount": 7745,
      "Ġdistract": 7746,
      "Ġcoloring": 7747,
      "Ġdaily": 7748,
      "Ġguests": 7749,
      "oey": 7750,
      "stick": 7751,
      "Ġgobbled": 7752,
      "Ġapplication": 7753,
      "Ġwindy": 7754,
      "ifornia": 7755,
      "Ġfilms": 7756,
      "Ġdaring": 7757,
      "Ġtrampoline": 7758,
      "Ġformed": 7759,
      "Meow": 7760,
      "Ġcomponents": 7761,
      "Ġexcept": 7762,
      "Ġwobbled": 7763,
      "Ġscrewdriver": 7764,
      "Ġequal": 7765,
      "Ġease": 7766,
      "ĠJackie": 7767,
      "Ġneighbours": 7768,
      "Ġwiping": 7769,
      "ĠJudy": 7770,
      "Ġtails": 7771,
      "Ġdespite": 7772,
      "Sammy": 7773,
      "osy": 7774,
      "Ġsnowmen": 7775,
      "hor": 7776,
      "Ġcounts": 7777,
      "len": 7778,
      "ĠGina": 7779,
      "Ġwarnings": 7780,
      "ido": 7781,
      "Ġhelpers": 7782,
      "Ġjoining": 7783,
      "Ġverb": 7784,
      "Ġornaments": 7785,
      "meal": 7786,
      "Ġprinc": 7787,
      "Ġcrew": 7788,
      "Ġguide": 7789,
      "Ġstock": 7790,
      "Ġscri": 7791,
      "Ġimplement": 7792,
      "Ġhusband": 7793,
      "Ġpotion": 7794,
      "ĠZoey": 7795,
      "Ġoccas": 7796,
      "Ġstrategies": 7797,
      "ration": 7798,
      "Ġenvironmental": 7799,
      "Ġbudget": 7800,
      "Every": 7801,
      "orter": 7802,
      "Ġsparks": 7803,
      "Ġopportunities": 7804,
      "ĠIntern": 7805,
      "Ġgrowls": 7806,
      "ox": 7807,
      "antic": 7808,
      "Ġcommunity": 7809,
      "Ġcontains": 7810,
      "ĠGrand": 7811,
      "ĠMeg": 7812,
      "Ġeconomy": 7813,
      "Ġestab": 7814,
      "onna": 7815,
      "cer": 7816,
      "bum": 7817,
      "ators": 7818,
      "ament": 7819,
      "Ġthrown": 7820,
      "Ġsponge": 7821,
      "Ġfund": 7822,
      "ados": 7823,
      "Ġnoses": 7824,
      "ĠRalph": 7825,
      "Ġswall": 7826,
      "Ġremembering": 7827,
      "Ġcampaign": 7828,
      "Ġdelivering": 7829,
      "Ġspat": 7830,
      "ĠComp": 7831,
      "Ġnearly": 7832,
      "ĠFriends": 7833,
      "Ġscrews": 7834,
      "fly": 7835,
      "wise": 7836,
      "ĠOver": 7837,
      "uzz": 7838,
      "ĠPri": 7839,
      "Ġdesigns": 7840,
      "Ġmood": 7841,
      "uctor": 7842,
      "ĠAsh": 7843,
      "Ġextreme": 7844,
      "Oops": 7845,
      "ca": 7846,
      "Ġovercome": 7847,
      "Ġgrandchild": 7848,
      "arshm": 7849,
      "imum": 7850,
      "Ġtouches": 7851,
      "Ġhundred": 7852,
      "!âĢĿ.": 7853,
      "Ġborrowed": 7854,
      "lph": 7855,
      "ccoon": 7856,
      "Ġpecked": 7857,
      "Ġraccoon": 7858,
      "Ġforks": 7859,
      "Ġslammed": 7860,
      "Ġlungs": 7861,
      "icated": 7862,
      "inating": 7863,
      "obble": 7864,
      "Ġpraying": 7865,
      "otion": 7866,
      "Ġgrandparents": 7867,
      "Ġmobile": 7868,
      "water": 7869,
      "ĠAg": 7870,
      "Ġreass": 7871,
      "Ġleaning": 7872,
      "Ġsuperheroes": 7873,
      "As": 7874,
      "ĠBecause": 7875,
      "Ġcuriously": 7876,
      "Ġmagician": 7877,
      "Ġ13": 7878,
      "From": 7879,
      "Ġpreparing": 7880,
      "Ġdetails": 7881,
      "while": 7882,
      "Ġsimply": 7883,
      "Ġproduce": 7884,
      "Ġsatisfaction": 7885,
      "Ġefficiency": 7886,
      "Ġraincoat": 7887,
      "Ġspices": 7888,
      "ĠTodd": 7889,
      "Ġsunflowers": 7890,
      "anish": 7891,
      "Ġund": 7892,
      "Ġaccording": 7893,
      "Ġfeeding": 7894,
      "ĠSec": 7895,
      "ĠGold": 7896,
      "Ġefforts": 7897,
      "Ġvisual": 7898,
      "ĠHolly": 7899,
      "Ġopportunity": 7900,
      "ĠHoot": 7901,
      "aint": 7902,
      "Ġprett": 7903,
      "cussion": 7904,
      "Ġconstruct": 7905,
      "Ġoatmeal": 7906,
      "Jenny": 7907,
      "Rex": 7908,
      "Ġswans": 7909,
      "Ġsmallest": 7910,
      "Ġduckling": 7911,
      "Ġtunnels": 7912,
      "Ġrefreshing": 7913,
      "Ġexperiment": 7914,
      "Ġadj": 7915,
      "Ġcrashing": 7916,
      "cell": 7917,
      "ĠListen": 7918,
      "ĠRay": 7919,
      "isco": 7920,
      "Ġinit": 7921,
      "Ġwishing": 7922,
      "Ġgreeted": 7923,
      "ublic": 7924,
      "Ġspoonful": 7925,
      "Ġmatters": 7926,
      "Ġsailors": 7927,
      "ĠArt": 7928,
      "Ġalthough": 7929,
      "Ġjobs": 7930,
      "Ġforgetting": 7931,
      "wk": 7932,
      "cky": 7933,
      "ĠZara": 7934,
      "Ġfrequ": 7935,
      "Ġfactors": 7936,
      "Ġexperienced": 7937,
      "Ġspikes": 7938,
      "Ġaltern": 7939,
      "Ġgardener": 7940,
      "alyze": 7941,
      "Ġrip": 7942,
      "Ġbows": 7943,
      "Ġlocation": 7944,
      "Ġdances": 7945,
      "Ġbreathed": 7946,
      "Ġheroes": 7947,
      "Ġdads": 7948,
      "Ġconsum": 7949,
      "Ġsignificant": 7950,
      "ĠCalifornia": 7951,
      "Ġpolitical": 7952,
      "ĠAmaz": 7953,
      "weed": 7954,
      "Ġhopeful": 7955,
      "oms": 7956,
      "ĠFido": 7957,
      "Ġsoc": 7958,
      "bba": 7959,
      "Ġadult": 7960,
      "Ġprettier": 7961,
      "Ġintrigued": 7962,
      "Ġpresident": 7963,
      "Ġcharge": 7964,
      "Ġprimary": 7965,
      "da": 7966,
      "Ġmoo": 7967,
      "ategor": 7968,
      "gle": 7969,
      "Ġswords": 7970,
      "Mary": 7971,
      "Ġzipping": 7972,
      "Ġforms": 7973,
      "Ġtoddler": 7974,
      "iel": 7975,
      "Ġmarshm": 7976,
      "Ġnetworks": 7977,
      "Ġhops": 7978,
      "date": 7979,
      "Ġrotten": 7980,
      "Ġdod": 7981,
      "endy": 7982,
      "--------": 7983,
      "Ġcorrectly": 7984,
      "Ġexercises": 7985,
      "Ġoh": 7986,
      "ĠQuick": 7987,
      "Roar": 7988,
      "Ġmesmerized": 7989,
      "ĠMid": 7990,
      "AI": 7991,
      "ĠFrog": 7992,
      "ython": 7993,
      "Ġwealth": 7994,
      "Ġwider": 7995,
      "Ġrecognition": 7996,
      "Ġ/": 7997,
      "ĠBessie": 7998,
      "etic": 7999,
      "Ġscamp": 8000,
      "Ġtoaster": 8001,
      "ĠWell": 8002,
      "Boo": 8003,
      "Ġsou": 8004,
      "Ġhandsome": 8005,
      "Ġbreathing": 8006,
      "ĠWest": 8007,
      "Ġforgets": 8008,
      "Ġpresented": 8009,
      "Ġsnuggle": 8010,
      "Ġvirtual": 8011,
      "ograp": 8012,
      "Ġwidely": 8013,
      "Ġut": 8014,
      "Ġhabit": 8015,
      "ufact": 8016,
      "Ġheight": 8017,
      "Ġends": 8018,
      "Ġpercussion": 8019,
      "Ġbaths": 8020,
      "ĠAli": 8021,
      "Ġevil": 8022,
      "bage": 8023,
      "antha": 8024,
      "hemat": 8025,
      "Ġneatly": 8026,
      "bird": 8027,
      "Ġseaweed": 8028,
      "Ġdou": 8029,
      "Ġalbum": 8030,
      "Ġworn": 8031,
      "Ġtriangles": 8032,
      "So": 8033,
      "Ġhawk": 8034,
      "Ġmaster": 8035,
      "Ġkm": 8036,
      "Ġbuzzed": 8037,
      "Ġcontra": 8038,
      "ĠBirthday": 8039,
      "years": 8040,
      "Ġparticularly": 8041,
      "Ġloyalty": 8042,
      "Ġadvantages": 8043,
      "ĠAmelia": 8044,
      "Ġchem": 8045,
      "ivil": 8046,
      "Ġ2020": 8047,
      "ĠGPT": 8048,
      "Ġskunk": 8049,
      "Ġprobably": 8050,
      "iger": 8051,
      "Ġ&": 8052,
      "Ġ*": 8053,
      "Ġwatering": 8054,
      "ĠLia": 8055,
      "Ġpaths": 8056,
      "Ġinspired": 8057,
      "Ġlat": 8058,
      "Ġtalks": 8059,
      "uel": 8060,
      "Ġ25": 8061,
      "itely": 8062,
      "Ġfits": 8063,
      "Woof": 8064,
      "Ġopposite": 8065,
      "Ġpolitely": 8066,
      "Ġunsure": 8067,
      "Ġwraps": 8068,
      "Ġwoof": 8069,
      "pro": 8070,
      "ĠMean": 8071,
      "200": 8072,
      "Amy": 8073,
      "Ġnational": 8074,
      "ĠOnly": 8075,
      "Ġdeveloped": 8076,
      "Ġloss": 8077,
      "Ġdrawn": 8078,
      "Ġnapkins": 8079,
      "Ġstores": 8080,
      "Ġsneezing": 8081,
      "Ġgarbage": 8082,
      "Sally": 8083,
      "ram": 8084,
      "Ġdip": 8085,
      "Ġreversed": 8086,
      "Sue": 8087,
      "Ġet": 8088,
      "ita": 8089,
      "Ġattempt": 8090,
      "Ġsupported": 8091,
      "Ġzebras": 8092,
      "zing": 8093,
      "ĠSof": 8094,
      "Ġforests": 8095,
      "ĠStay": 8096,
      "Ġembarrass": 8097,
      "Ġdevices": 8098,
      "Ġwobble": 8099,
      "Ġcleaner": 8100,
      "ĠSal": 8101,
      "Ġgest": 8102,
      "Ġvibrant": 8103,
      "ĠPot": 8104,
      "ĠOwl": 8105,
      "Ġonward": 8106,
      "ĠEliz": 8107,
      "ĠMed": 8108,
      "Ġwaterfall": 8109,
      "Ġorders": 8110,
      "Whee": 8111,
      "Ġdom": 8112,
      "Ġcommonly": 8113,
      "Ġissues": 8114,
      "Ġimpl": 8115,
      "Ġcoach": 8116,
      "Ġrespected": 8117,
      "Ġcomputing": 8118,
      "Ġincome": 8119,
      "Ġlifts": 8120,
      "fied": 8121,
      "Ġplucked": 8122,
      "Ġavocados": 8123,
      "Ġlack": 8124,
      "Ġgonna": 8125,
      "rier": 8126,
      "Ġropes": 8127,
      "ĠWil": 8128,
      "Ġglitt": 8129,
      "ĠEast": 8130,
      "Ġlifting": 8131,
      "Ġhonked": 8132,
      "Ġpassengers": 8133,
      "Ġdatabase": 8134,
      "Bun": 8135,
      "Ġcontribut": 8136,
      "attered": 8137,
      "Ġvariable": 8138,
      "ĠWendy": 8139,
      "Ġglued": 8140,
      "Ġscientist": 8141,
      "ĠMus": 8142,
      "ollow": 8143,
      "Ġdropping": 8144,
      "Ġfirmly": 8145,
      "itor": 8146,
      "ann": 8147,
      "Ġhyp": 8148,
      "Ġnur": 8149,
      "Ġlies": 8150,
      "Ġdev": 8151,
      "inger": 8152,
      "onies": 8153,
      "ĠCap": 8154,
      "Ġbully": 8155,
      "Ġstorage": 8156,
      "Ġincor": 8157,
      "Ġtemperatures": 8158,
      "All": 8159,
      "Ġcells": 8160,
      "ĠBar": 8161,
      "Ġdived": 8162,
      "lying": 8163,
      "Ġmints": 8164,
      "Ġwhispers": 8165,
      "ĠHar": 8166,
      "Ġrushing": 8167,
      "agn": 8168,
      "ĠBaa": 8169,
      "oodles": 8170,
      "Ġrecy": 8171,
      "Ġpostman": 8172,
      "Ġfacts": 8173,
      "Ġpops": 8174,
      "Ġreun": 8175,
      "Joe": 8176,
      "ĠHoney": 8177,
      "Ġswallowed": 8178,
      "father": 8179,
      "Ġcompared": 8180,
      "Ġmethod": 8181,
      "bro": 8182,
      "ĠRain": 8183,
      "Ġpuff": 8184,
      "mark": 8185,
      "Ġsofter": 8186,
      "Ġconser": 8187,
      "Ġstrongest": 8188,
      "Ġregularly": 8189,
      "allows": 8190,
      "ĠMomma": 8191,
      "Ġpresses": 8192,
      "Ġneural": 8193,
      "ĠMarch": 8194,
      "Ġprove": 8195,
      "Ġedges": 8196,
      "Cal": 8197,
      "Ġcris": 8198,
      "Ġgeese": 8199,
      "Ġbound": 8200,
      "Ġwaddled": 8201,
      "Ġunw": 8202,
      "ondon": 8203,
      "Ġbillion": 8204,
      "Ġcommunicate": 8205,
      "ĠSquirrel": 8206,
      "ĠCanada": 8207,
      "ava": 8208,
      "Ġdiscussing": 8209,
      "book": 8210,
      "Ġmerry": 8211,
      "Ġmathemat": 8212,
      "Ġexpert": 8213,
      "acles": 8214,
      "Ġbiting": 8215,
      "Ġthud": 8216,
      "Ġmanager": 8217,
      "ĠFur": 8218,
      "ĠRuth": 8219,
      "Ġtoward": 8220,
      "ĠPatch": 8221,
      "uracy": 8222,
      "Ġtrembled": 8223,
      "ĠTry": 8224,
      "Ġdancers": 8225,
      "Ġblast": 8226,
      "Ġtechnologies": 8227,
      "Ġjoyful": 8228,
      "Ġlaws": 8229,
      "ĠTuna": 8230,
      "ĠFranc": 8231,
      "Ġmental": 8232,
      "icious": 8233,
      "emic": 8234,
      "Ġwobbly": 8235,
      "Ġpanicked": 8236,
      "15": 8237,
      "Ġaim": 8238,
      "Ġcolder": 8239,
      "ĠMouse": 8240,
      "Analyze": 8241,
      "Pl": 8242,
      "Ġadject": 8243,
      "Ġdetermine": 8244,
      "ugs": 8245,
      "Ġanticip": 8246,
      "Ġscraped": 8247,
      "Ġsuitable": 8248,
      "Ġcushions": 8249,
      "ĠBubba": 8250,
      "Ġresisted": 8251,
      "ĠDay": 8252,
      "Ġlayer": 8253,
      "oint": 8254,
      "Ġ50": 8255,
      "ĠMeanwhile": 8256,
      "friend": 8257,
      "Ġmanufact": 8258,
      "retty": 8259,
      "Ġwiggle": 8260,
      "Ġloading": 8261,
      "Ġfaded": 8262,
      "Ġwrig": 8263,
      "Ġsumm": 8264,
      "ippy": 8265,
      "ĠWin": 8266,
      "Ġflown": 8267,
      "Ġtrot": 8268,
      "ipes": 8269,
      "ior": 8270,
      "Ġsequ": 8271,
      "ĠDog": 8272,
      "Ġmovement": 8273,
      "ĠFuzzy": 8274,
      "ĠStan": 8275,
      "omb": 8276,
      "Ġattend": 8277,
      "print": 8278,
      "what": 8279,
      "Ġnervously": 8280,
      "ugging": 8281,
      "Ġstarfish": 8282,
      "mates": 8283,
      "ĠAcc": 8284,
      "ĠDavey": 8285,
      "ĠMina": 8286,
      "Ġnecklaces": 8287,
      "Ġstacked": 8288,
      "now": 8289,
      "Ġcit": 8290,
      "ĠFarmer": 8291,
      "bell": 8292,
      "Ġpigeons": 8293,
      "Ġdrawers": 8294,
      "...\"": 8295,
      "izations": 8296,
      "Em": 8297,
      "Ġdefinitely": 8298,
      "Ġgeneral": 8299,
      "bur": 8300,
      "ĠAc": 8301,
      "ĠCent": 8302,
      "ĠBel": 8303,
      "Ġposition": 8304,
      "Ġemployees": 8305,
      "Ġsymbols": 8306,
      "Ġconcent": 8307,
      "Ġaccomplished": 8308,
      "uces": 8309,
      "ĠFreddie": 8310,
      "ĠBritish": 8311,
      "ĠPu": 8312,
      "Ġrainy": 8313,
      "Ġtwinkled": 8314,
      "ald": 8315,
      "ĠFlopsy": 8316,
      "mony": 8317,
      "Ġleapt": 8318,
      "Ġfrowning": 8319,
      "face": 8320,
      "Ġfirefighter": 8321,
      "Ġfinishing": 8322,
      "Ġinno": 8323,
      "Ġcotton": 8324,
      "ugust": 8325,
      "Ġimproving": 8326,
      "ĠFrosty": 8327,
      "Ġtravels": 8328,
      "Ġquarreling": 8329,
      "Ġvisitors": 8330,
      "Ġaccuracy": 8331,
      "Ġ2021": 8332,
      "Ġsank": 8333,
      "alse": 8334,
      "Ġadults": 8335,
      "bert": 8336,
      "Ġextract": 8337,
      "Follow": 8338,
      "Ġties": 8339,
      "ala": 8340,
      "Ġdresser": 8341,
      "Ġfirefly": 8342,
      "Ġaimed": 8343,
      "ĠCle": 8344,
      "Ġtablet": 8345,
      "Ġpuppet": 8346,
      "Ġplaytime": 8347,
      "Compare": 8348,
      "Ġscampered": 8349,
      "ĠSamantha": 8350,
      "Ġsweep": 8351,
      "Ġadvert": 8352,
      "Ġelement": 8353,
      "30": 8354,
      "ĠSpl": 8355,
      "Ġslips": 8356,
      "screen": 8357,
      "\".<": 8358,
      "Ġcapt": 8359,
      "angle": 8360,
      "Ġcoral": 8361,
      "ĠEle": 8362,
      "forest": 8363,
      "Ġsurfing": 8364,
      "ĠLeague": 8365,
      "ĠMaddy": 8366,
      "alu": 8367,
      "oses": 8368,
      "Like": 8369,
      "17": 8370,
      "achine": 8371,
      "ĠLearning": 8372,
      "chnology": 8373,
      "Ġcateg": 8374,
      "ĠAny": 8375,
      "eling": 8376,
      "Ġdatas": 8377,
      "Ġgenerally": 8378,
      "Ġmunch": 8379,
      "Ġbravest": 8380,
      "Ġtravelling": 8381,
      "Ġroutine": 8382,
      "Ġinvolve": 8383,
      "Ġchampion": 8384,
      "ĠCr": 8385,
      "Ġmarshmallows": 8386,
      "ĠStep": 8387,
      "ĠColl": 8388,
      "list": 8389,
      "Ġsniffs": 8390,
      "Compose": 8391,
      "rict": 8392,
      "ibly": 8393,
      "Ġechoed": 8394,
      "ĠFort": 8395,
      "Ġcapture": 8396,
      "ĠRich": 8397,
      "Ġdiver": 8398,
      "Ġbits": 8399,
      "ency": 8400,
      "Ġclues": 8401,
      "Ġhealing": 8402,
      "ĠMegan": 8403,
      "ĠSofia": 8404,
      "Ġelectron": 8405,
      "Ġpant": 8406,
      "ĠSer": 8407,
      "lin": 8408,
      "Ġships": 8409,
      "Ġded": 8410,
      "ĠLuc": 8411,
      "Ġselect": 8412,
      "Ġlaying": 8413,
      "Ġsurvive": 8414,
      "Ġexplorer": 8415,
      "ĠRec": 8416,
      "Ġbells": 8417,
      "Ġproduced": 8418,
      "Ġearned": 8419,
      "broken": 8420,
      "alloween": 8421,
      "ĠGl": 8422,
      "Ġpays": 8423,
      "Ġrepeating": 8424,
      "ĠGermany": 8425,
      "Ġrobber": 8426,
      "Ġsus": 8427,
      "earch": 8428,
      "Ġcred": 8429,
      "Ġcosy": 8430,
      "Ġpumpkins": 8431,
      "Ġsqueak": 8432,
      "urday": 8433,
      "iona": 8434,
      "ĠThrough": 8435,
      "Ġpennies": 8436,
      "ĠFurther": 8437,
      "Ġwakes": 8438,
      "Ġcongrat": 8439,
      "eline": 8440,
      "Ġmeasures": 8441,
      "Ġcobwebs": 8442,
      "please": 8443,
      "bel": 8444,
      "Ġlabels": 8445,
      "Ġmetap": 8446,
      "idey": 8447,
      "Ġhyd": 8448,
      "ĠLondon": 8449,
      "ĠPre": 8450,
      "Ġrelationship": 8451,
      "Ġencountered": 8452,
      "enn": 8453,
      "ĠHo": 8454,
      "Ġfailed": 8455,
      "Ġpeck": 8456,
      "Ġcottage": 8457,
      "Ġtossed": 8458,
      "Ġcoug": 8459,
      "Ġelf": 8460,
      "ĠDis": 8461,
      "Ġyielded": 8462,
      "Ġbrushing": 8463,
      "Ġdeclared": 8464,
      "erk": 8465,
      "Ġbond": 8466,
      "ĠRocky": 8467,
      "ĠEva": 8468,
      "Ġcareer": 8469,
      "yl": 8470,
      "ression": 8471,
      "Ġsweetest": 8472,
      "Ġappreciated": 8473,
      "Ġpours": 8474,
      "Ġpolicy": 8475,
      "Ġforgiving": 8476,
      "lands": 8477,
      "ĠHalloween": 8478,
      "Ġcloudy": 8479,
      "ĠStill": 8480,
      "Ġartwork": 8481,
      "Ġwept": 8482,
      "Ġmotiv": 8483,
      "che": 8484,
      "Ġcollab": 8485,
      "ĠHope": 8486,
      "Ġyel": 8487,
      "Ġhost": 8488,
      "Ġresponsibility": 8489,
      "Ġbehaving": 8490,
      "Ġcrossing": 8491,
      "worm": 8492,
      "ĠBang": 8493,
      "urprise": 8494,
      "cling": 8495,
      "Ġspins": 8496,
      "ĠDevelop": 8497,
      "Pe": 8498,
      "Ġsquishy": 8499,
      "Ġbuses": 8500,
      "Ġblinking": 8501,
      "ĠJojo": 8502,
      "Ġcontact": 8503,
      "Ġcourt": 8504,
      "Ġrequires": 8505,
      "Ġrelationships": 8506,
      "Ġteachers": 8507,
      "ĠKaty": 8508,
      "Ġanger": 8509,
      "ĠâĢĶ": 8510,
      "Ġsadd": 8511,
      "ĠGa": 8512,
      "Ġregion": 8513,
      "Ġconditions": 8514,
      "ĠLion": 8515,
      "ilda": 8516,
      "airy": 8517,
      "ĠBlack": 8518,
      "Ġcovering": 8519,
      "Listen": 8520,
      "Ġindividuals": 8521,
      "Ġhaird": 8522,
      "ĠCurious": 8523,
      "Ġdisob": 8524,
      "ĠBirdy": 8525,
      "Ġgreatest": 8526,
      "Ġblocked": 8527,
      "Ġnewfound": 8528,
      "Ġsqueezing": 8529,
      "Ġpressure": 8530,
      "Ġshorter": 8531,
      "Ġlaunch": 8532,
      "Ġdamaged": 8533,
      "aven": 8534,
      "Ġcm": 8535,
      "ĠSaturday": 8536,
      "ĠSing": 8537,
      "Ġstroll": 8538,
      "II": 8539,
      "rial": 8540,
      "ĠSpidey": 8541,
      "ĠSpe": 8542,
      "Ġdesigning": 8543,
      "Ġhistor": 8544,
      "Ġsuffered": 8545,
      "EC": 8546,
      "Person": 8547,
      "Ġgoods": 8548,
      "Ġprior": 8549,
      "Ġplayroom": 8550,
      "?!\"": 8551,
      "Ġtricycle": 8552,
      "Ġenable": 8553,
      "owned": 8554,
      "Ġpaintbrush": 8555,
      "Ġfantastic": 8556,
      "eezes": 8557,
      "ls": 8558,
      "ĠSpanish": 8559,
      "Ġtighter": 8560,
      "Ġangels": 8561,
      "Ġscientific": 8562,
      "Ġcontrast": 8563,
      "imated": 8564,
      "ĠPippin": 8565,
      "name": 8566,
      "ultural": 8567,
      "ĠMoon": 8568,
      "Ġfail": 8569,
      "Mine": 8570,
      "rian": 8571,
      "Ġpeak": 8572,
      "off": 8573,
      "Ġec": 8574,
      "Ġscene": 8575,
      "Fl": 8576,
      "ĠChar": 8577,
      "acle": 8578,
      "Ġtrends": 8579,
      "Ġsharks": 8580,
      "Ġconqu": 8581,
      "Ġheartbroken": 8582,
      "Ġchopped": 8583,
      "Phone": 8584,
      "ecca": 8585,
      "ĠAmazon": 8586,
      "ulf": 8587,
      "Ì¦Ì¦Ì¦Ì¦": 8588,
      "Ġnapping": 8589,
      "Ġnoodles": 8590,
      "umption": 8591,
      "Ġoysters": 8592,
      "Ġconcert": 8593,
      "Very": 8594,
      "daughter": 8595,
      "dding": 8596,
      "Ġmovements": 8597,
      "Ġ2022": 8598,
      "han": 8599,
      "Ġquery": 8600,
      "Ġsewing": 8601,
      "Ġdocument": 8602,
      "App": 8603,
      "sm": 8604,
      "Ġmate": 8605,
      "ein": 8606,
      "stand": 8607,
      "ĠMac": 8608,
      "Ġinches": 8609,
      "aver": 8610,
      "Ġcompare": 8611,
      "ĠChin": 8612,
      "Watch": 8613,
      "ĠTra": 8614,
      "ighting": 8615,
      "Ġprotection": 8616,
      "ibilities": 8617,
      "HE": 8618,
      "ĠSchool": 8619,
      "utter": 8620,
      "Ġkittens": 8621,
      "Ġexploration": 8622,
      "Ġrecent": 8623,
      "Ġ195": 8624,
      "Ġtone": 8625,
      "Ġlogo": 8626,
      "Ġcondition": 8627,
      "ĠLouise": 8628,
      "Ġaccurate": 8629,
      "Ġslipping": 8630,
      "boards": 8631,
      "Ġtwisty": 8632,
      "Ġdeath": 8633,
      "Ġpassports": 8634,
      "Ġplanting": 8635,
      "Ġstroke": 8636,
      "Ġtil": 8637,
      "Ġcrit": 8638,
      "artment": 8639,
      "Ġscurry": 8640,
      "ssil": 8641,
      "Ġhumming": 8642,
      "ological": 8643,
      "otte": 8644,
      "Ġprices": 8645,
      "Ġarranged": 8646,
      "Ġlent": 8647,
      "Ġconvin": 8648,
      "Ġodd": 8649,
      "Ġshoo": 8650,
      "ĠSpring": 8651,
      "Arr": 8652,
      "Ġais": 8653,
      "Ġtests": 8654,
      "Ġstreamers": 8655,
      "Ġapprox": 8656,
      "Ġtying": 8657,
      "ĠSk": 8658,
      "ĠPepper": 8659,
      "Ġnumer": 8660,
      "crow": 8661,
      "Ġsoaking": 8662,
      "Ġprev": 8663,
      "cellent": 8664,
      "Ġorganization": 8665,
      "ongo": 8666,
      "Ġdoorway": 8667,
      "Ġsurrendered": 8668,
      "Ġrelevant": 8669,
      "Ġinternational": 8670,
      "Ġformer": 8671,
      "Ġexchange": 8672,
      "Ġlending": 8673,
      "Ġ2019": 8674,
      "Ġbelts": 8675,
      "Bl": 8676,
      "ĠTy": 8677,
      "Ġcauses": 8678,
      "uction": 8679,
      "ĠEuropean": 8680,
      "Ġqui": 8681,
      "asty": 8682,
      "Ġyum": 8683,
      "ĠMaisy": 8684,
      "estic": 8685,
      "Ġvalid": 8686,
      "ae": 8687,
      "estern": 8688,
      "ĠMex": 8689,
      "ĠRiver": 8690,
      "Ġsnowflakes": 8691,
      "Ġgiggles": 8692,
      "Ġgall": 8693,
      "Alright": 8694,
      "ĠTaking": 8695,
      "Ġnav": 8696,
      "using": 8697,
      "of": 8698,
      "Ġfleas": 8699,
      "Ġproperty": 8700,
      "ĠKevin": 8701,
      "Un": 8702,
      "Ġstitches": 8703,
      "Ġresul": 8704,
      "Ġmerma": 8705,
      "Ġpossess": 8706,
      "ĠBon": 8707,
      "Ġfounded": 8708,
      "Ġbru": 8709,
      "Ġbasic": 8710,
      "ously": 8711,
      "aa": 8712,
      "Ġactor": 8713,
      "ĠFiona": 8714,
      "Ġcoast": 8715,
      "Ġmailed": 8716,
      "Ġsuggestion": 8717,
      "Lisa": 8718,
      "ĠPython": 8719,
      "Ġwarri": 8720,
      "perate": 8721,
      "ĠAlly": 8722,
      "Ġunable": 8723,
      "aries": 8724,
      "ĠJuly": 8725,
      "ĠWally": 8726,
      "Ġleap": 8727,
      "tr": 8728,
      "Ġfills": 8729,
      "Ġtwisting": 8730,
      "ĠJean": 8731,
      "Ġslither": 8732,
      "ĠKelly": 8733,
      "Ġshady": 8734,
      "asons": 8735,
      "Ġwisely": 8736,
      "Ġsustainable": 8737,
      "Ġpins": 8738,
      "ĠAna": 8739,
      "Ġquieter": 8740,
      "oor": 8741,
      "Ġnuzz": 8742,
      "sey": 8743,
      "ications": 8744,
      "Ġsentiment": 8745,
      "],": 8746,
      "Ġhairdress": 8747,
      "ĠMother": 8748,
      "Ġdisplayed": 8749,
      "Ġparticip": 8750,
      "oogle": 8751,
      "alian": 8752,
      "Ġbackground": 8753,
      "inkle": 8754,
      "Ġrecords": 8755,
      "Ġawoke": 8756,
      "Ġgap": 8757,
      "Ġroars": 8758,
      "ĠMae": 8759,
      "Ġmasterp": 8760,
      "idi": 8761,
      "Ġweeds": 8762,
      "Ġscent": 8763,
      "ĠCor": 8764,
      "Ġdeb": 8765,
      "ĠOpen": 8766,
      "ĠChick": 8767,
      "Ġignoring": 8768,
      "Johnny": 8769,
      "field": 8770,
      "Ġep": 8771,
      "ĠPretty": 8772,
      "Ġluckily": 8773,
      "life": 8774,
      "reg": 8775,
      "Ġtuck": 8776,
      "iation": 8777,
      "emma": 8778,
      "oxide": 8779,
      "uries": 8780,
      "idents": 8781,
      "Ġcollap": 8782,
      "Ġshovels": 8783,
      "ĠPippa": 8784,
      "ĠAustralia": 8785,
      "byes": 8786,
      "Ġtowns": 8787,
      "Ġpresence": 8788,
      "Ġrays": 8789,
      "Ġconcl": 8790,
      "Ġbelieving": 8791,
      "Ġgraph": 8792,
      "ands": 8793,
      "ĠEngland": 8794,
      "Ġbracelets": 8795,
      "ppies": 8796,
      "Ġgoodbyes": 8797,
      "Ġvines": 8798,
      "Ġcalc": 8799,
      "ĠBecky": 8800,
      "Ġofficers": 8801,
      "ĠAugust": 8802,
      "ĠAnother": 8803,
      "Ġlicking": 8804,
      "vo": 8805,
      "ĠHold": 8806,
      "ĠOct": 8807,
      "Ġexplains": 8808,
      "like": 8809,
      "Ġprick": 8810,
      "asc": 8811,
      "Ġhanding": 8812,
      ");": 8813,
      "term": 8814,
      "Ġfossil": 8815,
      "Ġmusical": 8816,
      "Ġconsists": 8817,
      "ĠRoger": 8818,
      "whel": 8819,
      "Ġreference": 8820,
      "Ġstopping": 8821,
      "Ġchocolates": 8822,
      "Ġliter": 8823,
      "Ġsped": 8824,
      "andom": 8825,
      "Ġcontext": 8826,
      "Ġrains": 8827,
      "Ġtheme": 8828,
      "ded": 8829,
      "Ġreven": 8830,
      "Ġformat": 8831,
      "Ġopinions": 8832,
      "born": 8833,
      "Ġrely": 8834,
      "Ġsurprising": 8835,
      "Surprise": 8836,
      "enses": 8837,
      "Ġdriveway": 8838,
      "ĠWelcome": 8839,
      "agon": 8840,
      "ĠJonny": 8841,
      "Ġserving": 8842,
      "Ġhairdresser": 8843,
      "Ġtreated": 8844,
      "ĠAuntie": 8845,
      "Che": 8846,
      "Ġaward": 8847,
      "Ġsouth": 8848,
      "onom": 8849,
      "Ġsched": 8850,
      "Ġhealthier": 8851,
      "Ġpuzzled": 8852,
      "Ġkings": 8853,
      "Ġmagazines": 8854,
      "Ġpunishment": 8855,
      "Ġpeeled": 8856,
      "Ġseasons": 8857,
      "ĠBounce": 8858,
      "Ġcalculate": 8859,
      "Ġgrandson": 8860,
      "Ġcitiz": 8861,
      "Ġfishes": 8862,
      "ĠDuck": 8863,
      "ĠJaney": 8864,
      "Ġcomforting": 8865,
      "ĠMal": 8866,
      "ĠDory": 8867,
      "Ġreminding": 8868,
      "Ġthorns": 8869,
      "ĠDel": 8870,
      "Ġintegr": 8871,
      "Ġreunited": 8872,
      "14": 8873,
      "Ġrewards": 8874,
      "ago": 8875,
      "Ġoverwhel": 8876,
      "Ġgranddaughter": 8877,
      "Ġwindowsill": 8878,
      "Ġencouragement": 8879,
      "Ġbless": 8880,
      "Ġraces": 8881,
      "ĠSir": 8882,
      "Ġkil": 8883,
      "Ġsuits": 8884,
      "Ġpandemic": 8885,
      "Ġmetaphor": 8886,
      "Ġdelayed": 8887,
      "Ġponies": 8888,
      "Get": 8889,
      "ĠSa": 8890,
      "ĠJoan": 8891,
      "Ġcin": 8892,
      "ooking": 8893,
      "Ġpackages": 8894,
      "Ġgrip": 8895,
      "Ġdisturbing": 8896,
      "steps": 8897,
      "Ġlatest": 8898,
      "ĠHigh": 8899,
      "Ġenab": 8900,
      "ĠDaniel": 8901,
      "Ġcampfire": 8902,
      "Ġamounts": 8903,
      "Ġstyles": 8904,
      "aling": 8905,
      "flies": 8906,
      "Ġcuddles": 8907,
      "Ġanalyze": 8908,
      "ĠFurthermore": 8909,
      "Vroom": 8910,
      "Ġqual": 8911,
      "Ġpromot": 8912,
      "Ġflipped": 8913,
      "ID": 8914,
      "Ġrap": 8915,
      "Ġrevolution": 8916,
      "Ġdescribed": 8917,
      "Calculate": 8918,
      "ili": 8919,
      "Ġsurfboard": 8920,
      "ĠFroggy": 8921,
      "wor": 8922,
      "Ġtipped": 8923,
      "issa": 8924,
      "Ġfires": 8925,
      "bu": 8926,
      "Ġnorth": 8927,
      "ĠFeeling": 8928,
      "zed": 8929,
      "ĠAut": 8930,
      "Ġroast": 8931,
      "Ġfrowns": 8932,
      "chievous": 8933,
      "ĠSum": 8934,
      "ading": 8935,
      "gar": 8936,
      "Ġdefeated": 8937,
      "ashes": 8938,
      "Ġ24": 8939,
      "Ġafar": 8940,
      "Ġsunscreen": 8941,
      "atives": 8942,
      "atitude": 8943,
      "Ġreasons": 8944,
      "Ġconsumption": 8945,
      "ĠWashing": 8946,
      "Ġbirdhouse": 8947,
      "Ġdioxide": 8948,
      "Ġmasterpiece": 8949,
      "hib": 8950,
      "Ġbandages": 8951,
      "Ġfootsteps": 8952,
      "Ġadjust": 8953,
      "Ġreapp": 8954,
      "Ġsyn": 8955,
      "Ġquant": 8956,
      "Ġgears": 8957,
      "obe": 8958,
      "Ġsnort": 8959,
      "Ġhighly": 8960,
      "ĠReg": 8961,
      "Out": 8962,
      "Ġhike": 8963,
      "Ġmischievous": 8964,
      "Ġspeeding": 8965,
      "rick": 8966,
      "Ġengin": 8967,
      "Ġtopics": 8968,
      "Ġarchit": 8969,
      "ography": 8970,
      "ĠChinese": 8971,
      "Ġengines": 8972,
      "Ġnasty": 8973,
      "Ġshall": 8974,
      "aret": 8975,
      "Ġsqueaked": 8976,
      "Ġnearest": 8977,
      "ĠPoor": 8978,
      "Ġkit": 8979,
      "ĠExcitedly": 8980,
      "ober": 8981,
      "Ġseller": 8982,
      "Ġpeas": 8983,
      "Ġscul": 8984,
      "Ġmessages": 8985,
      "Ġworrying": 8986,
      "hold": 8987,
      "Ġque": 8988,
      "Ġcrops": 8989,
      "Ġrequired": 8990,
      "agement": 8991,
      "asha": 8992,
      "Ġattitude": 8993,
      "Ġengaging": 8994,
      "ĠCharlotte": 8995,
      "vy": 8996,
      "inations": 8997,
      "udo": 8998,
      "Ġconnection": 8999,
      "ĠAir": 9000,
      "Ġexec": 9001,
      "Ġdegrees": 9002,
      "elling": 9003,
      "ooky": 9004,
      "Ġunco": 9005,
      "Ġapologised": 9006,
      "Ġreality": 9007,
      "Ġpurr": 9008,
      "Ġemerged": 9009,
      "Ġrescu": 9010,
      "inch": 9011,
      "Ġanticipation": 9012,
      "Ġscarecrow": 9013,
      "Ġfoxes": 9014,
      "Ġpedaled": 9015,
      "Ġdisease": 9016,
      "ode": 9017,
      "wood": 9018,
      "Ġobst": 9019,
      "ole": 9020,
      "ppa": 9021,
      "ighing": 9022,
      "Ġchilly": 9023,
      "ĠFlo": 9024,
      "ĠQuackers": 9025,
      "roll": 9026,
      "Ġmeaningful": 9027,
      "Ġcongratulated": 9028,
      "lest": 9029,
      "Ġsheets": 9030,
      "Ġdeveloping": 9031,
      "Ġbanged": 9032,
      "Mag": 9033,
      "ker": 9034,
      "Ġdarl": 9035,
      "Ġwrigg": 9036,
      "Ġdarlings": 9037,
      "zes": 9038,
      "Ġreassured": 9039,
      "Ġsmelling": 9040,
      "ancing": 9041,
      "Ġadmiration": 9042,
      "Ġunfortunately": 9043,
      "Ġtrotted": 9044,
      "Ġsusp": 9045,
      "Ġyoungest": 9046,
      "ĠSet": 9047,
      "Ġstumble": 9048,
      "ĠCO": 9049,
      "Ġbenefit": 9050,
      "Ġscientists": 9051,
      "ĠPol": 9052,
      "Ġadop": 9053,
      "Ġsails": 9054,
      "Ġprograms": 9055,
      "Ġsculpt": 9056,
      "rons": 9057,
      "Quick": 9058,
      "Ġmac": 9059,
      "Ġknots": 9060,
      "Ġoldest": 9061,
      "Ġtasting": 9062,
      "ivia": 9063,
      "ĠOutside": 9064,
      "Ġjars": 9065,
      "Ġrecently": 9066,
      "Ġcalmly": 9067,
      "ĠIntellig": 9068,
      "Ġtoss": 9069,
      "Ġclosing": 9070,
      "Ġwrinkled": 9071,
      "Ġtempt": 9072,
      "Ġstructures": 9073,
      "bra": 9074,
      "quet": 9075,
      "Ġgratitude": 9076,
      "ĠNor": 9077,
      "ĠNove": 9078,
      "Ġsociety": 9079,
      "Stay": 9080,
      "ĠKingdom": 9081,
      "Ġger": 9082,
      "ategorize": 9083,
      "ĠWoo": 9084,
      "mic": 9085,
      "Ġpoppies": 9086,
      "Ġnodding": 9087,
      "Ġassign": 9088,
      "Ġscram": 9089,
      "ĠJava": 9090,
      "Ġpersonalized": 9091,
      "ĠJax": 9092,
      "ĠNancy": 9093,
      "Ġdot": 9094,
      "Ġmaker": 9095,
      "ĠElle": 9096,
      "Ġexamining": 9097,
      "Ġclerk": 9098,
      "Ġturtles": 9099,
      "ddie": 9100,
      "thern": 9101,
      "Ġnovels": 9102,
      "Ġelectrical": 9103,
      "Ġwomen": 9104,
      "Ġbelongings": 9105,
      "Ġregard": 9106,
      "Ġsniffing": 9107,
      "Ġseashells": 9108,
      "rup": 9109,
      "Ġbold": 9110,
      "Ġexcellent": 9111,
      "ĠFighting": 9112,
      "Ġterrified": 9113,
      "Ġinterface": 9114,
      "Ġunderstands": 9115,
      "Ġpasses": 9116,
      "resident": 9117,
      "Friend": 9118,
      "arily": 9119,
      "ĠLife": 9120,
      "ĠKen": 9121,
      "ĠOctober": 9122,
      "ĠCup": 9123,
      "Ġbraver": 9124,
      "Ġtraveling": 9125,
      "ĠNovember": 9126,
      "cra": 9127,
      "Ġtires": 9128,
      "Ġconfidence": 9129,
      "ĠSplash": 9130,
      "Teddy": 9131,
      "rors": 9132,
      "elope": 9133,
      "Ġspits": 9134,
      "Ġadditional": 9135,
      "Ġ193": 9136,
      "Ġcharacteristics": 9137,
      "Ġcitizens": 9138,
      "(\"": 9139,
      "ĠItalian": 9140,
      "Ġloops": 9141,
      "Ġprojects": 9142,
      "Ġofficial": 9143,
      "Ġcheers": 9144,
      "Ġsteer": 9145,
      "BA": 9146,
      "Ġburying": 9147,
      "Ġspills": 9148,
      "eptember": 9149,
      "Ġdump": 9150,
      "Ġsection": 9151,
      "Ġprincip": 9152,
      "Ġbitten": 9153,
      "alax": 9154,
      "Ġoperations": 9155,
      "Ġbackpacks": 9156,
      "words": 9157,
      "itz": 9158,
      "itam": 9159,
      "ĠLast": 9160,
      "ĠMc": 9161,
      "Ġsituations": 9162,
      "ĠiPhone": 9163,
      "Ġblog": 9164,
      "Ġtubes": 9165,
      "Ġpleaded": 9166,
      "Ġyelped": 9167,
      "Ġ40": 9168,
      "Ġcontainer": 9169,
      "Ġbothering": 9170,
      "ĠMartin": 9171,
      "ham": 9172,
      "ĠEric": 9173,
      "ĠElly": 9174,
      "Ġrefuse": 9175,
      "Ġannoyed": 9176,
      "ĠData": 9177,
      "Ġtoolbox": 9178,
[...]
